{
  "vocab": {
    "0": "<|endoftext|>",
    "1": "\u0000",
    "2": "\u0001",
    "3": "\u0002",
    "4": "\u0003",
    "5": "\u0004",
    "6": "\u0005",
    "7": "\u0006",
    "8": "\u0007",
    "9": "\b",
    "10": "\t",
    "11": "\n",
    "12": "\u000b",
    "13": "\f",
    "14": "\r",
    "15": "\u000e",
    "16": "\u000f",
    "17": "\u0010",
    "18": "\u0011",
    "19": "\u0012",
    "20": "\u0013",
    "21": "\u0014",
    "22": "\u0015",
    "23": "\u0016",
    "24": "\u0017",
    "25": "\u0018",
    "26": "\u0019",
    "27": "\u001a",
    "28": "\u001b",
    "29": "\u001c",
    "30": "\u001d",
    "31": "\u001e",
    "32": "\u001f",
    "33": " ",
    "34": "!",
    "35": "\"",
    "36": "#",
    "37": "$",
    "38": "%",
    "39": "&",
    "40": "'",
    "41": "(",
    "42": ")",
    "43": "*",
    "44": "+",
    "45": ",",
    "46": "-",
    "47": ".",
    "48": "/",
    "49": "0",
    "50": "1",
    "51": "2",
    "52": "3",
    "53": "4",
    "54": "5",
    "55": "6",
    "56": "7",
    "57": "8",
    "58": "9",
    "59": ":",
    "60": ";",
    "61": "<",
    "62": "=",
    "63": ">",
    "64": "?",
    "65": "@",
    "66": "A",
    "67": "B",
    "68": "C",
    "69": "D",
    "70": "E",
    "71": "F",
    "72": "G",
    "73": "H",
    "74": "I",
    "75": "J",
    "76": "K",
    "77": "L",
    "78": "M",
    "79": "N",
    "80": "O",
    "81": "P",
    "82": "Q",
    "83": "R",
    "84": "S",
    "85": "T",
    "86": "U",
    "87": "V",
    "88": "W",
    "89": "X",
    "90": "Y",
    "91": "Z",
    "92": "[",
    "93": "\\",
    "94": "]",
    "95": "^",
    "96": "_",
    "97": "`",
    "98": "a",
    "99": "b",
    "100": "c",
    "101": "d",
    "102": "e",
    "103": "f",
    "104": "g",
    "105": "h",
    "106": "i",
    "107": "j",
    "108": "k",
    "109": "l",
    "110": "m",
    "111": "n",
    "112": "o",
    "113": "p",
    "114": "q",
    "115": "r",
    "116": "s",
    "117": "t",
    "118": "u",
    "119": "v",
    "120": "w",
    "121": "x",
    "122": "y",
    "123": "z",
    "124": "{",
    "125": "|",
    "126": "}",
    "127": "~",
    "128": "",
    "129": "�",
    "130": "�",
    "131": "�",
    "132": "�",
    "133": "�",
    "134": "�",
    "135": "�",
    "136": "�",
    "137": "�",
    "138": "�",
    "139": "�",
    "140": "�",
    "141": "�",
    "142": "�",
    "143": "�",
    "144": "�",
    "145": "�",
    "146": "�",
    "147": "�",
    "148": "�",
    "149": "�",
    "150": "�",
    "151": "�",
    "152": "�",
    "153": "�",
    "154": "�",
    "155": "�",
    "156": "�",
    "157": "�",
    "158": "�",
    "159": "�",
    "160": "�",
    "161": "�",
    "162": "�",
    "163": "�",
    "164": "�",
    "165": "�",
    "166": "�",
    "167": "�",
    "168": "�",
    "169": "�",
    "170": "�",
    "171": "�",
    "172": "�",
    "173": "�",
    "174": "�",
    "175": "�",
    "176": "�",
    "177": "�",
    "178": "�",
    "179": "�",
    "180": "�",
    "181": "�",
    "182": "�",
    "183": "�",
    "184": "�",
    "185": "�",
    "186": "�",
    "187": "�",
    "188": "�",
    "189": "�",
    "190": "�",
    "191": "�",
    "192": "�",
    "193": "�",
    "194": "�",
    "195": "�",
    "196": "�",
    "197": "�",
    "198": "�",
    "199": "�",
    "200": "�",
    "201": "�",
    "202": "�",
    "203": "�",
    "204": "�",
    "205": "�",
    "206": "�",
    "207": "�",
    "208": "�",
    "209": "�",
    "210": "�",
    "211": "�",
    "212": "�",
    "213": "�",
    "214": "�",
    "215": "�",
    "216": "�",
    "217": "�",
    "218": "�",
    "219": "�",
    "220": "�",
    "221": "�",
    "222": "�",
    "223": "�",
    "224": "�",
    "225": "�",
    "226": "�",
    "227": "�",
    "228": "�",
    "229": "�",
    "230": "�",
    "231": "�",
    "232": "�",
    "233": "�",
    "234": "�",
    "235": "�",
    "236": "�",
    "237": "�",
    "238": "�",
    "239": "�",
    "240": "�",
    "241": "�",
    "242": "�",
    "243": "�",
    "244": "�",
    "245": "�",
    "246": "�",
    "247": "�",
    "248": "�",
    "249": "�",
    "250": "�",
    "251": "�",
    "252": "�",
    "253": "�",
    "254": "�",
    "255": "�",
    "256": "�",
    "257": " t",
    "258": "he",
    "259": " a",
    "260": " s",
    "261": " w",
    "262": "nd",
    "263": " the",
    "264": "ed",
    "265": " b",
    "266": " to",
    "267": " and",
    "268": " h",
    "269": " f",
    "270": "in",
    "271": " T",
    "272": " wa",
    "273": "re",
    "274": "it",
    "275": "ou",
    "276": " l",
    "277": " d",
    "278": " c",
    "279": " p",
    "280": "ay",
    "281": " m",
    "282": "er",
    "283": " was",
    "284": "om",
    "285": " The",
    "286": " he",
    "287": "is",
    "288": "ar",
    "289": " n",
    "290": "im",
    "291": "on",
    "292": " sa",
    "293": "id",
    "294": "ll",
    "295": " ha",
    "296": " g",
    "297": "at",
    "298": " S",
    "299": "ing",
    "300": "ot",
    "301": "en",
    "302": "an",
    "303": "le",
    "304": "or",
    "305": "ir",
    "306": "am",
    "307": "et",
    "308": " H",
    "309": " it",
    "310": " th",
    "311": "ig",
    "312": " They",
    "313": " in",
    "314": "il",
    "315": " pl",
    "316": " He",
    "317": " \"",
    "318": "ow",
    "319": "ver",
    "320": "ri",
    "321": "ut",
    "322": " be",
    "323": " u",
    "324": " said",
    "325": " play",
    "326": "ith",
    "327": " day",
    "328": " with",
    "329": "pp",
    "330": "On",
    "331": " o",
    "332": " y",
    "333": "oo",
    "334": "ked",
    "335": " r",
    "336": " her",
    "337": "ce",
    "338": " I",
    "339": " She",
    "340": "ld",
    "341": " Tim",
    "342": " his",
    "343": " st",
    "344": "ke",
    "345": " e",
    "346": " big",
    "347": "nt",
    "348": "ck",
    "349": " you",
    "350": "very",
    "351": "st",
    "352": "ve",
    "353": "end",
    "354": " on",
    "355": "un",
    "356": " happ",
    "357": "riend",
    "358": " friend",
    "359": "all",
    "360": "ily",
    "361": " L",
    "362": " they",
    "363": " we",
    "364": " had",
    "365": " not",
    "366": " li",
    "367": " up",
    "368": "her",
    "369": " want",
    "370": " of",
    "371": "ad",
    "372": "itt",
    "373": "se",
    "374": " B",
    "375": " do",
    "376": " happy",
    "377": "ent",
    "378": " very",
    "379": " M",
    "380": "es",
    "381": " that",
    "382": " saw",
    "383": "One",
    "384": "'s",
    "385": "ould",
    "386": " mom",
    "387": " for",
    "388": " sh",
    "389": "ittle",
    "390": " little",
    "391": " so",
    "392": " she",
    "393": "ch",
    "394": "ime",
    "395": " ne",
    "396": " nam",
    "397": ".\"",
    "398": " time",
    "399": " k",
    "400": "ound",
    "401": " there",
    "402": " named",
    "403": " sm",
    "404": " bo",
    "405": " were",
    "406": " Lily",
    "407": " wanted",
    "408": " but",
    "409": "out",
    "410": "The",
    "411": " friends",
    "412": "ved",
    "413": "!\"",
    "414": "ht",
    "415": " Tom",
    "416": "ird",
    "417": "el",
    "418": " bird",
    "419": "al",
    "420": " an",
    "421": "ake",
    "422": " too",
    "423": "ome",
    "424": " It",
    "425": "ug",
    "426": "ide",
    "427": " went",
    "428": " wh",
    "429": " hel",
    "430": "Once",
    "431": " is",
    "432": " all",
    "433": " help",
    "434": "ue",
    "435": " loo",
    "436": " lo",
    "437": "ter",
    "438": " A",
    "439": " upon",
    "440": "ry",
    "441": "ore",
    "442": "ind",
    "443": " fun",
    "444": "get",
    "445": " toy",
    "446": "ill",
    "447": "ame",
    "448": " as",
    "449": " at",
    "450": "ra",
    "451": " j",
    "452": " did",
    "453": "gether",
    "454": " re",
    "455": "ur",
    "456": " se",
    "457": " together",
    "458": "ack",
    "459": " cat",
    "460": "ly",
    "461": " tre",
    "462": "ood",
    "463": "ic",
    "464": "ted",
    "465": " dog",
    "466": " could",
    "467": " can",
    "468": " their",
    "469": "ard",
    "470": "ec",
    "471": "ark",
    "472": " gir",
    "473": " played",
    "474": " him",
    "475": " ball",
    "476": "?\"",
    "477": " girl",
    "478": "way",
    "479": " ro",
    "480": " go",
    "481": "hed",
    "482": "my",
    "483": " are",
    "484": " out",
    "485": " le",
    "486": " fr",
    "487": "ain",
    "488": " kn",
    "489": "hen",
    "490": " them",
    "491": "um",
    "492": "'t",
    "493": "ax",
    "494": " sad",
    "495": "ul",
    "496": " boy",
    "497": " tree",
    "498": "other",
    "499": " have",
    "500": " man",
    "501": " cl",
    "502": " loved",
    "503": " looked",
    "504": "oug",
    "505": " found",
    "506": " sp",
    "507": " star",
    "508": " Sue",
    "509": "one",
    "510": "hing",
    "511": " sc",
    "512": " back",
    "513": "own",
    "514": " Max",
    "515": "are",
    "516": " like",
    "517": "ful",
    "518": "side",
    "519": " me",
    "520": " bec",
    "521": " park",
    "522": "ight",
    "523": "ong",
    "524": " car",
    "525": "op",
    "526": "elt",
    "527": " One",
    "528": " liked",
    "529": " would",
    "530": " make",
    "531": "round",
    "532": " la",
    "533": " fa",
    "534": " felt",
    "535": "You",
    "536": " W",
    "537": "ell",
    "538": " see",
    "539": " But",
    "540": "omet",
    "541": " asked",
    "542": "ag",
    "543": " new",
    "544": " no",
    "545": "ice",
    "546": " Sam",
    "547": "ouse",
    "548": " started",
    "549": "ared",
    "550": " came",
    "551": " Ben",
    "552": " al",
    "553": " other",
    "554": "ought",
    "555": "iled",
    "556": " somet",
    "557": " ag",
    "558": " good",
    "559": " small",
    "560": "ss",
    "561": " br",
    "562": " smiled",
    "563": " say",
    "564": "ried",
    "565": "ade",
    "566": "ings",
    "567": "ob",
    "568": "pot",
    "569": " wor",
    "570": " find",
    "571": " ex",
    "572": "ia",
    "573": " away",
    "574": "ty",
    "575": " put",
    "576": " what",
    "577": " something",
    "578": " co",
    "579": " from",
    "580": " made",
    "581": " thought",
    "582": "ened",
    "583": " home",
    "584": " playing",
    "585": "ook",
    "586": " every",
    "587": " wal",
    "588": " mu",
    "589": "uc",
    "590": "ach",
    "591": "arn",
    "592": " Spot",
    "593": " ran",
    "594": "ile",
    "595": " F",
    "596": "ie",
    "597": " J",
    "598": "ave",
    "599": " again",
    "600": " some",
    "601": " laug",
    "602": "dd",
    "603": " house",
    "604": " down",
    "605": " fl",
    "606": "king",
    "607": " took",
    "608": " scared",
    "609": " pr",
    "610": "ny",
    "611": "ure",
    "612": " toys",
    "613": " learn",
    "614": " You",
    "615": "if",
    "616": " will",
    "617": " box",
    "618": "ick",
    "619": "ret",
    "620": "ab",
    "621": "ep",
    "622": " my",
    "623": " around",
    "624": " things",
    "625": " your",
    "626": "oud",
    "627": " bl",
    "628": "uck",
    "629": " when",
    "630": "ish",
    "631": " lived",
    "632": " fe",
    "633": " then",
    "634": " sun",
    "635": "as",
    "636": " sw",
    "637": ",\"",
    "638": " ch",
    "639": "us",
    "640": "pped",
    "641": " ab",
    "642": " Mia",
    "643": "ank",
    "644": " get",
    "645": "ucy",
    "646": "Tim",
    "647": "ump",
    "648": "Th",
    "649": " lot",
    "650": "ist",
    "651": "oth",
    "652": " tried",
    "653": "ap",
    "654": " know",
    "655": " says",
    "656": " got",
    "657": "ited",
    "658": " who",
    "659": " kne",
    "660": "ust",
    "661": " many",
    "662": "nder",
    "663": " int",
    "664": " about",
    "665": "Lily",
    "666": " pret",
    "667": " dec",
    "668": " any",
    "669": " red",
    "670": " D",
    "671": "ive",
    "672": " knew",
    "673": "ace",
    "674": "ous",
    "675": " more",
    "676": "ise",
    "677": " care",
    "678": "ally",
    "679": " pic",
    "680": "au",
    "681": "qu",
    "682": " hug",
    "683": " Lucy",
    "684": " learned",
    "685": " po",
    "686": " water",
    "687": "fter",
    "688": " v",
    "689": " became",
    "690": " best",
    "691": "ause",
    "692": " op",
    "693": " gre",
    "694": " exc",
    "695": "urp",
    "696": "ways",
    "697": "�",
    "698": " outside",
    "699": " laughed",
    "700": " look",
    "701": " always",
    "702": " decid",
    "703": " show",
    "704": " un",
    "705": "ant",
    "706": " Bob",
    "707": " room",
    "708": "fe",
    "709": " decided",
    "710": " ho",
    "711": " because",
    "712": " So",
    "713": " into",
    "714": " eat",
    "715": "ite",
    "716": " jump",
    "717": " And",
    "718": " pe",
    "719": " both",
    "720": "ers",
    "721": " Mom",
    "722": " dad",
    "723": "They",
    "724": "udd",
    "725": " ke",
    "726": " one",
    "727": "nn",
    "728": " this",
    "729": " excited",
    "730": " fast",
    "731": " nice",
    "732": " E",
    "733": " feel",
    "734": "Tom",
    "735": "Yes",
    "736": " run",
    "737": " long",
    "738": " told",
    "739": " sk",
    "740": " am",
    "741": "urpr",
    "742": "our",
    "743": " inside",
    "744": "ull",
    "745": " tr",
    "746": " surpr",
    "747": " mo",
    "748": "ink",
    "749": " pretty",
    "750": "iny",
    "751": " sor",
    "752": "Wh",
    "753": " take",
    "754": "og",
    "755": " sl",
    "756": " each",
    "757": " gave",
    "758": " much",
    "759": " gra",
    "760": "lew",
    "761": "nna",
    "762": " rock",
    "763": " how",
    "764": " str",
    "765": "ara",
    "766": "imal",
    "767": " animal",
    "768": "ged",
    "769": " need",
    "770": " than",
    "771": "But",
    "772": "ven",
    "773": "etter",
    "774": " tow",
    "775": " or",
    "776": " C",
    "777": " under",
    "778": "ess",
    "779": " old",
    "780": " sorry",
    "781": "ge",
    "782": "ised",
    "783": "ro",
    "784": "urt",
    "785": " cle",
    "786": " fish",
    "787": " walked",
    "788": " clo",
    "789": "and",
    "790": " bear",
    "791": "ft",
    "792": "ase",
    "793": "ast",
    "794": " hand",
    "795": "urn",
    "796": " We",
    "797": " kind",
    "798": " His",
    "799": " te",
    "800": "here",
    "801": " happened",
    "802": " just",
    "803": " flow",
    "804": " food",
    "805": " list",
    "806": " didn",
    "807": " animals",
    "808": " hig",
    "809": "pl",
    "810": " near",
    "811": " wat",
    "812": " ide",
    "813": " try",
    "814": "ched",
    "815": " sky",
    "816": "ine",
    "817": " sn",
    "818": "ving",
    "819": " fi",
    "820": "rom",
    "821": " us",
    "822": " idea",
    "823": " better",
    "824": " Amy",
    "825": " bug",
    "826": " heard",
    "827": "gry",
    "828": " its",
    "829": " tw",
    "830": " let",
    "831": "pec",
    "832": "ate",
    "833": "able",
    "834": "ff",
    "835": " en",
    "836": " careful",
    "837": " share",
    "838": "ex",
    "839": " if",
    "840": "Thank",
    "841": "Mom",
    "842": " fly",
    "843": " stor",
    "844": "ial",
    "845": " flew",
    "846": "more",
    "847": " anymore",
    "848": " Th",
    "849": " spec",
    "850": " special",
    "851": "ion",
    "852": " com",
    "853": " lots",
    "854": " never",
    "855": " by",
    "856": "lf",
    "857": "ream",
    "858": " dan",
    "859": " bu",
    "860": " fo",
    "861": " wind",
    "862": " don",
    "863": " tal",
    "864": " clean",
    "865": "ort",
    "866": " gr",
    "867": " love",
    "868": "rm",
    "869": "ber",
    "870": " end",
    "871": "\n\n",
    "872": " Then",
    "873": "ople",
    "874": " even",
    "875": " mag",
    "876": " hard",
    "877": " shiny",
    "878": "udden",
    "879": " fore",
    "880": " over",
    "881": " cake",
    "882": "ak",
    "883": " book",
    "884": " col",
    "885": " turn",
    "886": " fam",
    "887": " bad",
    "888": " safe",
    "889": " after",
    "890": "ady",
    "891": " Anna",
    "892": "uddenly",
    "893": " people",
    "894": " proud",
    "895": " Every",
    "896": " surprised",
    "897": "pected",
    "898": "Let",
    "899": " high",
    "900": " cu",
    "901": " hurt",
    "902": " come",
    "903": "imb",
    "904": "arden",
    "905": " door",
    "906": " garden",
    "907": "bb",
    "908": " ground",
    "909": " opened",
    "910": " picked",
    "911": " loud",
    "912": " climb",
    "913": "expected",
    "914": " unexpected",
    "915": " gl",
    "916": " che",
    "917": "ild",
    "918": " im",
    "919": "As",
    "920": " give",
    "921": " way",
    "922": "ail",
    "923": "'m",
    "924": " thanked",
    "925": " color",
    "926": " blue",
    "927": " still",
    "928": " ever",
    "929": " hugged",
    "930": " From",
    "931": " call",
    "932": " far",
    "933": "ip",
    "934": " Her",
    "935": " Sara",
    "936": " When",
    "937": "No",
    "938": " off",
    "939": " magic",
    "940": "iz",
    "941": "ough",
    "942": "age",
    "943": "ummy",
    "944": " K",
    "945": " jumped",
    "946": " should",
    "947": " family",
    "948": " par",
    "949": "ool",
    "950": " kid",
    "951": " smile",
    "952": "hes",
    "953": "uff",
    "954": " place",
    "955": "kay",
    "956": " walk",
    "957": " now",
    "958": "ct",
    "959": " In",
    "960": " great",
    "961": "em",
    "962": "ture",
    "963": " qu",
    "964": "les",
    "965": " strong",
    "966": " stay",
    "967": " unt",
    "968": " sto",
    "969": "aut",
    "970": " forest",
    "971": "ane",
    "972": " bra",
    "973": "itty",
    "974": " P",
    "975": " frog",
    "976": " bro",
    "977": " until",
    "978": "oon",
    "979": " beaut",
    "980": "dy",
    "981": " squ",
    "982": " stick",
    "983": "xt",
    "984": " next",
    "985": " boat",
    "986": "lease",
    "987": "ning",
    "988": " happily",
    "989": " listen",
    "990": "aking",
    "991": " kids",
    "992": " tra",
    "993": "ies",
    "994": "iful",
    "995": " beautiful",
    "996": " app",
    "997": "th",
    "998": " helped",
    "999": " dra",
    "1000": " showed",
    "1001": " clos",
    "1002": "be",
    "1003": " imp",
    "1004": " story",
    "1005": "unny",
    "1006": "oy",
    "1007": " while",
    "1008": " town",
    "1009": "rel",
    "1010": "pt",
    "1011": " rain",
    "1012": "ress",
    "1013": " picture",
    "1014": " being",
    "1015": " rem",
    "1016": " everyone",
    "1017": "It",
    "1018": "ary",
    "1019": "ree",
    "1020": " mor",
    "1021": " hat",
    "1022": " called",
    "1023": " met",
    "1024": " stopped",
    "1025": " ad",
    "1026": " game",
    "1027": "Now",
    "1028": "He",
    "1029": "Can",
    "1030": " angry",
    "1031": "ger",
    "1032": "uffy",
    "1033": " open",
    "1034": " wo",
    "1035": " truck",
    "1036": " keep",
    "1037": " soft",
    "1038": "When",
    "1039": " cry",
    "1040": " yummy",
    "1041": " lost",
    "1042": " bed",
    "1043": " Let",
    "1044": " Sally",
    "1045": " warm",
    "1046": "by",
    "1047": "vent",
    "1048": " brave",
    "1049": " mouse",
    "1050": " Wh",
    "1051": " ate",
    "1052": " Kitty",
    "1053": "ished",
    "1054": " de",
    "1055": "fore",
    "1056": " doll",
    "1057": "so",
    "1058": " couldn",
    "1059": " watch",
    "1060": " leave",
    "1061": " also",
    "1062": "dded",
    "1063": " fell",
    "1064": " green",
    "1065": " face",
    "1066": " two",
    "1067": "gan",
    "1068": "iss",
    "1069": " flowers",
    "1070": "bit",
    "1071": "What",
    "1072": " R",
    "1073": "ble",
    "1074": " noise",
    "1075": "abbit",
    "1076": "irst",
    "1077": "owl",
    "1078": " where",
    "1079": "az",
    "1080": "ock",
    "1081": " soon",
    "1082": "self",
    "1083": " slide",
    "1084": " rabbit",
    "1085": " hole",
    "1086": "luffy",
    "1087": " before",
    "1088": "irrel",
    "1089": " pus",
    "1090": "ired",
    "1091": " sat",
    "1092": "illy",
    "1093": " hear",
    "1094": " use",
    "1095": "”",
    "1096": "Hi",
    "1097": " pa",
    "1098": " kept",
    "1099": "“",
    "1100": "That",
    "1101": " squirrel",
    "1102": "ear",
    "1103": "Then",
    "1104": "ma",
    "1105": " nodded",
    "1106": " expl",
    "1107": " store",
    "1108": " cook",
    "1109": " hands",
    "1110": "Look",
    "1111": " birds",
    "1112": " pain",
    "1113": " going",
    "1114": " funny",
    "1115": " having",
    "1116": "day",
    "1117": " sing",
    "1118": "aybe",
    "1119": "uch",
    "1120": " ey",
    "1121": "aug",
    "1122": " catch",
    "1123": "aught",
    "1124": " Can",
    "1125": " Fluffy",
    "1126": "uit",
    "1127": " yell",
    "1128": " think",
    "1129": "leep",
    "1130": " cra",
    "1131": " fin",
    "1132": "Ben",
    "1133": " bre",
    "1134": " fix",
    "1135": " tired",
    "1136": " bunny",
    "1137": " used",
    "1138": " looking",
    "1139": " bus",
    "1140": "ange",
    "1141": "air",
    "1142": " work",
    "1143": " wr",
    "1144": " our",
    "1145": " pull",
    "1146": "We",
    "1147": " thr",
    "1148": "thing",
    "1149": " Now",
    "1150": " wait",
    "1151": " kit",
    "1152": " sound",
    "1153": "ting",
    "1154": " jo",
    "1155": " has",
    "1156": " G",
    "1157": " mean",
    "1158": " pond",
    "1159": "ember",
    "1160": " beh",
    "1161": " dr",
    "1162": " sunny",
    "1163": "led",
    "1164": " others",
    "1165": " ask",
    "1166": "ng",
    "1167": "chen",
    "1168": " kitchen",
    "1169": " talk",
    "1170": " flo",
    "1171": " dif",
    "1172": "rew",
    "1173": " pie",
    "1174": " Jo",
    "1175": " head",
    "1176": " real",
    "1177": " first",
    "1178": " tri",
    "1179": " mommy",
    "1180": " eyes",
    "1181": "ello",
    "1182": " import",
    "1183": "Hello",
    "1184": " fav",
    "1185": "ath",
    "1186": "joy",
    "1187": " z",
    "1188": " remember",
    "1189": " right",
    "1190": " flower",
    "1191": " con",
    "1192": " mess",
    "1193": " party",
    "1194": " cold",
    "1195": " Do",
    "1196": " vo",
    "1197": " swe",
    "1198": "ious",
    "1199": " sand",
    "1200": " “",
    "1201": "ac",
    "1202": "orn",
    "1203": " race",
    "1204": " curi",
    "1205": "imes",
    "1206": " important",
    "1207": " duck",
    "1208": " moral",
    "1209": " shared",
    "1210": "zy",
    "1211": "ount",
    "1212": " Jack",
    "1213": " ice",
    "1214": " okay",
    "1215": " advent",
    "1216": " worked",
    "1217": "llow",
    "1218": "At",
    "1219": " enjoy",
    "1220": " dress",
    "1221": " bright",
    "1222": " making",
    "1223": " curious",
    "1224": " own",
    "1225": " tall",
    "1226": " dir",
    "1227": " hop",
    "1228": "reed",
    "1229": " hid",
    "1230": " favor",
    "1231": " ri",
    "1232": "hn",
    "1233": " sleep",
    "1234": " dis",
    "1235": "Wow",
    "1236": " favorite",
    "1237": " thing",
    "1238": " began",
    "1239": " mon",
    "1240": " bag",
    "1241": " hill",
    "1242": "Don",
    "1243": " cla",
    "1244": " draw",
    "1245": " rest",
    "1246": " here",
    "1247": " yard",
    "1248": " tell",
    "1249": " Fin",
    "1250": "ster",
    "1251": " watched",
    "1252": "que",
    "1253": " follow",
    "1254": " move",
    "1255": " bel",
    "1256": "ect",
    "1257": " cut",
    "1258": " night",
    "1259": " agreed",
    "1260": " pick",
    "1261": "co",
    "1262": " block",
    "1263": " hun",
    "1264": "aper",
    "1265": "lly",
    "1266": " stop",
    "1267": " behind",
    "1268": " This",
    "1269": " surprise",
    "1270": "ied",
    "1271": " sho",
    "1272": " hot",
    "1273": "After",
    "1274": " table",
    "1275": " grass",
    "1276": " worry",
    "1277": " dark",
    "1278": " trees",
    "1279": " voice",
    "1280": " walking",
    "1281": "fere",
    "1282": " floor",
    "1283": " farm",
    "1284": " lion",
    "1285": " top",
    "1286": " differe",
    "1287": " please",
    "1288": " ru",
    "1289": " song",
    "1290": " butter",
    "1291": " tail",
    "1292": " sweet",
    "1293": "Max",
    "1294": " shout",
    "1295": " colors",
    "1296": " read",
    "1297": " Dad",
    "1298": " lady",
    "1299": " forg",
    "1300": "isy",
    "1301": " leaves",
    "1302": " closer",
    "1303": "ign",
    "1304": " cars",
    "1305": " turned",
    "1306": " needed",
    "1307": " tast",
    "1308": "Why",
    "1309": "aring",
    "1310": " wood",
    "1311": " cried",
    "1312": " different",
    "1313": " laugh",
    "1314": " del",
    "1315": " piece",
    "1316": "’",
    "1317": "ered",
    "1318": " Mr",
    "1319": " roll",
    "1320": " adventure",
    "1321": " fire",
    "1322": " does",
    "1323": "ike",
    "1324": " cr",
    "1325": " hungry",
    "1326": " hair",
    "1327": " Suddenly",
    "1328": " paper",
    "1329": " feeling",
    "1330": " yellow",
    "1331": " full",
    "1332": "bo",
    "1333": " prin",
    "1334": "Sue",
    "1335": " touch",
    "1336": " As",
    "1337": "Anna",
    "1338": "Sam",
    "1339": " wet",
    "1340": " friendly",
    "1341": " per",
    "1342": "oom",
    "1343": "ken",
    "1344": "cked",
    "1345": "ached",
    "1346": " swing",
    "1347": " fruit",
    "1348": "ient",
    "1349": " broken",
    "1350": " ready",
    "1351": "bye",
    "1352": "ppy",
    "1353": " prom",
    "1354": " That",
    "1355": " another",
    "1356": " light",
    "1357": " pretend",
    "1358": " dance",
    "1359": "ater",
    "1360": " climbed",
    "1361": "where",
    "1362": " listened",
    "1363": " Bobo",
    "1364": " danc",
    "1365": " running",
    "1366": " only",
    "1367": " plan",
    "1368": " gone",
    "1369": " swim",
    "1370": "bbed",
    "1371": "Suddenly",
    "1372": "sh",
    "1373": " train",
    "1374": "ila",
    "1375": "ndma",
    "1376": "Sara",
    "1377": " Jane",
    "1378": " close",
    "1379": "av",
    "1380": "She",
    "1381": " smell",
    "1382": "So",
    "1383": "aby",
    "1384": " amaz",
    "1385": " hold",
    "1386": " blocks",
    "1387": " wonder",
    "1388": " Timmy",
    "1389": " repl",
    "1390": " All",
    "1391": " butterf",
    "1392": " sees",
    "1393": " reached",
    "1394": " wall",
    "1395": " pu",
    "1396": "oney",
    "1397": "red",
    "1398": " slow",
    "1399": " helping",
    "1400": " dri",
    "1401": " cream",
    "1402": " cool",
    "1403": " glad",
    "1404": "af",
    "1405": " ant",
    "1406": " less",
    "1407": " been",
    "1408": " goodbye",
    "1409": " ac",
    "1410": " fight",
    "1411": "ather",
    "1412": "Mia",
    "1413": " pushed",
    "1414": "iced",
    "1415": " fair",
    "1416": " must",
    "1417": " hide",
    "1418": " moment",
    "1419": " window",
    "1420": " O",
    "1421": " sit",
    "1422": " balloon",
    "1423": " snow",
    "1424": " child",
    "1425": " explore",
    "1426": " Everyone",
    "1427": " ar",
    "1428": " wished",
    "1429": " baby",
    "1430": " done",
    "1431": " wag",
    "1432": " ste",
    "1433": " buy",
    "1434": " stuck",
    "1435": " perf",
    "1436": " thank",
    "1437": " might",
    "1438": "icy",
    "1439": " name",
    "1440": "ized",
    "1441": " trying",
    "1442": " bit",
    "1443": " coming",
    "1444": " bar",
    "1445": " quick",
    "1446": " fall",
    "1447": " apple",
    "1448": "ash",
    "1449": " scary",
    "1450": " looks",
    "1451": " build",
    "1452": " doing",
    "1453": " win",
    "1454": " underst",
    "1455": "aisy",
    "1456": " din",
    "1457": " dream",
    "1458": " dirty",
    "1459": " held",
    "1460": "ames",
    "1461": " books",
    "1462": " mar",
    "1463": "In",
    "1464": " butterfly",
    "1465": " left",
    "1466": " shouted",
    "1467": " count",
    "1468": " replied",
    "1469": "avy",
    "1470": " reach",
    "1471": " tiny",
    "1472": " through",
    "1473": "ott",
    "1474": " dro",
    "1475": " why",
    "1476": " air",
    "1477": " bran",
    "1478": " land",
    "1479": "key",
    "1480": " three",
    "1481": " pulled",
    "1482": " spl",
    "1483": " grow",
    "1484": " treat",
    "1485": " brother",
    "1486": " wise",
    "1487": " woods",
    "1488": " sure",
    "1489": "'re",
    "1490": " chair",
    "1491": "ix",
    "1492": " mat",
    "1493": "ins",
    "1494": " seen",
    "1495": " pink",
    "1496": " clapped",
    "1497": " plant",
    "1498": "ely",
    "1499": " owl",
    "1500": " cup",
    "1501": "ield",
    "1502": " sometimes",
    "1503": "andy",
    "1504": " fill",
    "1505": " cloud",
    "1506": "ask",
    "1507": " swam",
    "1508": "outh",
    "1509": " job",
    "1510": " colorful",
    "1511": " remembered",
    "1512": " bigger",
    "1513": " nest",
    "1514": " mouth",
    "1515": "pe",
    "1516": "Okay",
    "1517": " lesson",
    "1518": " join",
    "1519": " cre",
    "1520": "ph",
    "1521": " There",
    "1522": "oup",
    "1523": "room",
    "1524": "art",
    "1525": " waved",
    "1526": "uddy",
    "1527": " grabbed",
    "1528": " stayed",
    "1529": "Oh",
    "1530": " paint",
    "1531": "This",
    "1532": " clot",
    "1533": " cont",
    "1534": " clothes",
    "1535": " ve",
    "1536": "ower",
    "1537": " After",
    "1538": " waited",
    "1539": " quickly",
    "1540": "cle",
    "1541": " word",
    "1542": " broke",
    "1543": "ucky",
    "1544": " games",
    "1545": " cast",
    "1546": " blew",
    "1547": " gent",
    "1548": " Mommy",
    "1549": " enjoyed",
    "1550": " noticed",
    "1551": "Jo",
    "1552": "ries",
    "1553": "ation",
    "1554": " set",
    "1555": " likes",
    "1556": " pictures",
    "1557": "ton",
    "1558": "de",
    "1559": " sea",
    "1560": " heavy",
    "1561": " mus",
    "1562": " alone",
    "1563": " gif",
    "1564": "asure",
    "1565": " anything",
    "1566": " spot",
    "1567": " miss",
    "1568": " hopped",
    "1569": " world",
    "1570": " turns",
    "1571": "orm",
    "1572": " year",
    "1573": "der",
    "1574": " bott",
    "1575": " pat",
    "1576": " pot",
    "1577": " pen",
    "1578": "lc",
    "1579": "Her",
    "1580": " mix",
    "1581": " arm",
    "1582": " bike",
    "1583": " tight",
    "1584": " everywhere",
    "1585": " won",
    "1586": "Lucy",
    "1587": " tower",
    "1588": " threw",
    "1589": " himself",
    "1590": " followed",
    "1591": " Buddy",
    "1592": " ride",
    "1593": "man",
    "1594": "less",
    "1595": " ju",
    "1596": " je",
    "1597": "amp",
    "1598": "Bob",
    "1599": "ape",
    "1600": " comp",
    "1601": " key",
    "1602": "row",
    "1603": "\".",
    "1604": " white",
    "1605": "ctor",
    "1606": " wrong",
    "1607": " Daisy",
    "1608": " makes",
    "1609": " What",
    "1610": " break",
    "1611": " black",
    "1612": "arent",
    "1613": "ee",
    "1614": "ner",
    "1615": "Spot",
    "1616": "Do",
    "1617": " deep",
    "1618": "thy",
    "1619": " music",
    "1620": " pol",
    "1621": " delic",
    "1622": "cess",
    "1623": "ued",
    "1624": " forgot",
    "1625": " bee",
    "1626": " parent",
    "1627": " castle",
    "1628": "ves",
    "1629": "olly",
    "1630": " em",
    "1631": "iet",
    "1632": " wear",
    "1633": " hit",
    "1634": "ister",
    "1635": "oun",
    "1636": " quiet",
    "1637": " round",
    "1638": "ance",
    "1639": " stu",
    "1640": " danced",
    "1641": " vis",
    "1642": "ully",
    "1643": " wants",
    "1644": " leaf",
    "1645": " monster",
    "1646": " nap",
    "1647": " John",
    "1648": " understand",
    "1649": "ang",
    "1650": " bowl",
    "1651": "os",
    "1652": "rot",
    "1653": "ren",
    "1654": " bor",
    "1655": " talked",
    "1656": "itten",
    "1657": " dry",
    "1658": " faster",
    "1659": " cookies",
    "1660": " brought",
    "1661": "fully",
    "1662": " leg",
    "1663": "ross",
    "1664": " mum",
    "1665": "zz",
    "1666": " side",
    "1667": "ts",
    "1668": "From",
    "1669": " sign",
    "1670": " Inside",
    "1671": " smart",
    "1672": "cy",
    "1673": " rocks",
    "1674": " someone",
    "1675": "His",
    "1676": " poin",
    "1677": " sec",
    "1678": " sharing",
    "1679": " fox",
    "1680": " well",
    "1681": " res",
    "1682": " rel",
    "1683": " happen",
    "1684": " button",
    "1685": " branch",
    "1686": " Lila",
    "1687": " really",
    "1688": " finished",
    "1689": "ence",
    "1690": "ards",
    "1691": " dinner",
    "1692": " sister",
    "1693": " flying",
    "1694": "eddy",
    "1695": " contin",
    "1696": " worried",
    "1697": " ele",
    "1698": " To",
    "1699": " visit",
    "1700": " Maybe",
    "1701": " beach",
    "1702": " que",
    "1703": " secret",
    "1704": " el",
    "1705": " Sarah",
    "1706": " king",
    "1707": "John",
    "1708": "gy",
    "1709": " today",
    "1710": " perfect",
    "1711": " river",
    "1712": " everything",
    "1713": " silly",
    "1714": " shin",
    "1715": " Joe",
    "1716": " danger",
    "1717": "ipp",
    "1718": " children",
    "1719": " gu",
    "1720": " Soon",
    "1721": " field",
    "1722": " filled",
    "1723": " fur",
    "1724": " else",
    "1725": " smiles",
    "1726": " welc",
    "1727": " At",
    "1728": " wish",
    "1729": " Em",
    "1730": "While",
    "1731": " sang",
    "1732": " gi",
    "1733": "ze",
    "1734": " pudd",
    "1735": " snack",
    "1736": " eating",
    "1737": " realized",
    "1738": " pieces",
    "1739": " promised",
    "1740": "ord",
    "1741": " spr",
    "1742": " pig",
    "1743": " free",
    "1744": " continued",
    "1745": " bite",
    "1746": "ead",
    "1747": " parents",
    "1748": " carefully",
    "1749": "ated",
    "1750": "itting",
    "1751": " ear",
    "1752": "Just",
    "1753": " jar",
    "1754": "Maybe",
    "1755": " cow",
    "1756": "Amy",
    "1757": " blank",
    "1758": " drag",
    "1759": "stead",
    "1760": " orange",
    "1761": " mud",
    "1762": " crying",
    "1763": " blanket",
    "1764": " enough",
    "1765": " rolled",
    "1766": "cket",
    "1767": " soup",
    "1768": " sail",
    "1769": " purp",
    "1770": "imi",
    "1771": " yes",
    "1772": "ale",
    "1773": " drink",
    "1774": " snake",
    "1775": "ses",
    "1776": " boun",
    "1777": " pet",
    "1778": " crab",
    "1779": " throw",
    "1780": " laughing",
    "1781": " fairy",
    "1782": " words",
    "1783": " amazing",
    "1784": " bath",
    "1785": "ich",
    "1786": " purple",
    "1787": " Z",
    "1788": " without",
    "1789": "ire",
    "1790": " bottle",
    "1791": " Billy",
    "1792": " gift",
    "1793": " grandma",
    "1794": "Fin",
    "1795": "used",
    "1796": "ons",
    "1797": " past",
    "1798": " money",
    "1799": "iver",
    "1800": "fort",
    "1801": " mail",
    "1802": " Gra",
    "1803": " barked",
    "1804": " wagged",
    "1805": " att",
    "1806": "chool",
    "1807": " monkey",
    "1808": " doctor",
    "1809": "unch",
    "1810": " brown",
    "1811": " moved",
    "1812": "ises",
    "1813": " asks",
    "1814": " getting",
    "1815": " closed",
    "1816": " whe",
    "1817": " welcome",
    "1818": " su",
    "1819": " candy",
    "1820": " school",
    "1821": " morning",
    "1822": " owner",
    "1823": "gg",
    "1824": " lon",
    "1825": " mother",
    "1826": " higher",
    "1827": " sitting",
    "1828": " treasure",
    "1829": ".”",
    "1830": " smo",
    "1831": "!”",
    "1832": " dangerous",
    "1833": " lonely",
    "1834": " Ch",
    "1835": " living",
    "1836": " apples",
    "1837": "ush",
    "1838": " shop",
    "1839": "ased",
    "1840": " strange",
    "1841": "vel",
    "1842": " shining",
    "1843": " road",
    "1844": "ere",
    "1845": " Tommy",
    "1846": " creat",
    "1847": "una",
    "1848": " paw",
    "1849": " ra",
    "1850": "ey",
    "1851": " shoes",
    "1852": " pre",
    "1853": "ible",
    "1854": " -",
    "1855": " stre",
    "1856": " talking",
    "1857": "althy",
    "1858": " caught",
    "1859": " egg",
    "1860": "ol",
    "1861": " pass",
    "1862": "me",
    "1863": " lake",
    "1864": " runs",
    "1865": " buck",
    "1866": " letter",
    "1867": " wings",
    "1868": " chee",
    "1869": "fish",
    "1870": " mad",
    "1871": " fan",
    "1872": "asket",
    "1873": " basket",
    "1874": "ass",
    "1875": " dragon",
    "1876": "app",
    "1877": "Mommy",
    "1878": "set",
    "1879": "cks",
    "1880": " stone",
    "1881": " thinks",
    "1882": " stand",
    "1883": " delicious",
    "1884": " nose",
    "1885": " puddle",
    "1886": " tom",
    "1887": " Bl",
    "1888": " Mimi",
    "1889": " belie",
    "1890": " farmer",
    "1891": " same",
    "1892": " years",
    "1893": "board",
    "1894": " teddy",
    "1895": " bat",
    "1896": "isk",
    "1897": "itch",
    "1898": " mine",
    "1899": " sear",
    "1900": " coat",
    "1901": "ches",
    "1902": "igh",
    "1903": " days",
    "1904": " bring",
    "1905": " gentle",
    "1906": " fit",
    "1907": " start",
    "1908": " finally",
    "1909": " whist",
    "1910": " cray",
    "1911": "igg",
    "1912": " scream",
    "1913": " kite",
    "1914": " pill",
    "1915": "phant",
    "1916": "arm",
    "1917": " vill",
    "1918": " cho",
    "1919": " singing",
    "1920": "ella",
    "1921": "sw",
    "1922": "ined",
    "1923": " tasty",
    "1924": " ph",
    "1925": " ben",
    "1926": " trou",
    "1927": " shell",
    "1928": " herself",
    "1929": " hoped",
    "1930": " answ",
    "1931": " wore",
    "1932": " swings",
    "1933": "sy",
    "1934": " hor",
    "1935": " belong",
    "1936": "Please",
    "1937": " push",
    "1938": " bush",
    "1939": "iskers",
    "1940": " carrot",
    "1941": " arri",
    "1942": "aughty",
    "1943": " teach",
    "1944": "bow",
    "1945": "ract",
    "1946": " naughty",
    "1947": " elephant",
    "1948": " dropped",
    "1949": " shap",
    "1950": "ier",
    "1951": " coll",
    "1952": "sc",
    "1953": " teac",
    "1954": "emy",
    "1955": " woke",
    "1956": "ball",
    "1957": " pile",
    "1958": " hiding",
    "1959": " cour",
    "1960": "isa",
    "1961": "erry",
    "1962": " touc",
    "1963": " min",
    "1964": " puppy",
    "1965": "'ll",
    "1966": " seem",
    "1967": "llie",
    "1968": " twins",
    "1969": "ama",
    "1970": " lunch",
    "1971": " bow",
    "1972": " sack",
    "1973": " pers",
    "1974": " course",
    "1975": " cheered",
    "1976": " shapes",
    "1977": " Jen",
    "1978": " grew",
    "1979": "fused",
    "1980": " rope",
    "1981": " village",
    "1982": "irth",
    "1983": "irthday",
    "1984": " juice",
    "1985": "ipped",
    "1986": " rainbow",
    "1987": " spin",
    "1988": "OK",
    "1989": " shook",
    "1990": "Jack",
    "1991": " spoon",
    "1992": " bench",
    "1993": " street",
    "1994": " fence",
    "1995": " cute",
    "1996": " Fred",
    "1997": " rob",
    "1998": " nut",
    "1999": " cheese",
    "2000": " prob",
    "2001": " touched",
    "2002": "idge",
    "2003": "col",
    "2004": " joy",
    "2005": " Whiskers",
    "2006": " arrived",
    "2007": " seed",
    "2008": " war",
    "2009": " teacher",
    "2010": " corn",
    "2011": "Good",
    "2012": " forever",
    "2013": " able",
    "2014": " bell",
    "2015": " few",
    "2016": " carry",
    "2017": " most",
    "2018": " plane",
    "2019": " Blue",
    "2020": "lem",
    "2021": " eas",
    "2022": " sounds",
    "2023": "lla",
    "2024": " des",
    "2025": " spo",
    "2026": " problem",
    "2027": " birthday",
    "2028": " power",
    "2029": " inc",
    "2030": "umb",
    "2031": "br",
    "2032": "\n ",
    "2033": " bugs",
    "2034": "ilk",
    "2035": " wonderful",
    "2036": " dolls",
    "2037": " busy",
    "2038": "ato",
    "2039": "irp",
    "2040": "eb",
    "2041": " wra",
    "2042": " promise",
    "2043": " Thank",
    "2044": " feels",
    "2045": "ian",
    "2046": " Emma",
    "2047": "eter",
    "2048": " bread",
    "2049": " neck",
    "2050": "Finally",
    "2051": " milk",
    "2052": " robot",
    "2053": " rec",
    "2054": " shy",
    "2055": "ountain",
    "2056": " kiss",
    "2057": "irt",
    "2058": " heart",
    "2059": " band",
    "2060": " cave",
    "2061": " pocket",
    "2062": "ub",
    "2063": " helpful",
    "2064": "gly",
    "2065": " slowly",
    "2066": " believe",
    "2067": " shake",
    "2068": "umpy",
    "2069": "eared",
    "2070": " patient",
    "2071": " pop",
    "2072": " ob",
    "2073": "arp",
    "2074": " live",
    "2075": " storm",
    "2076": " holding",
    "2077": " ugly",
    "2078": " towards",
    "2079": " upset",
    "2080": " turt",
    "2081": " shr",
    "2082": "adow",
    "2083": " cover",
    "2084": " kitten",
    "2085": "ost",
    "2086": " Remy",
    "2087": " sharp",
    "2088": " disapp",
    "2089": " stories",
    "2090": " suc",
    "2091": " honey",
    "2092": "ove",
    "2093": " Bella",
    "2094": "read",
    "2095": " noises",
    "2096": " Le",
    "2097": " cir",
    "2098": " balls",
    "2099": " spark",
    "2100": " gray",
    "2101": " dist",
    "2102": " dirt",
    "2103": "oggy",
    "2104": " late",
    "2105": " driver",
    "2106": " seat",
    "2107": " bucket",
    "2108": " meet",
    "2109": " young",
    "2110": " amazed",
    "2111": " turtle",
    "2112": "alm",
    "2113": " spid",
    "2114": " treats",
    "2115": " magical",
    "2116": "unt",
    "2117": "ator",
    "2118": " glow",
    "2119": " seek",
    "2120": " zoom",
    "2121": " lem",
    "2122": " sandw",
    "2123": "fortable",
    "2124": "umber",
    "2125": " trip",
    "2126": " mist",
    "2127": "ourn",
    "2128": " splas",
    "2129": " mark",
    "2130": " journ",
    "2131": " fold",
    "2132": " mach",
    "2133": " puzz",
    "2134": " part",
    "2135": "ling",
    "2136": " horse",
    "2137": " organ",
    "2138": " wild",
    "2139": " princess",
    "2140": "pping",
    "2141": "oose",
    "2142": " cookie",
    "2143": "Sure",
    "2144": "ens",
    "2145": " hugs",
    "2146": " Mark",
    "2147": " taking",
    "2148": "ung",
    "2149": " wheel",
    "2150": "epend",
    "2151": " cloth",
    "2152": " Lisa",
    "2153": " sug",
    "2154": " instead",
    "2155": " bubb",
    "2156": " string",
    "2157": " net",
    "2158": " drove",
    "2159": "iling",
    "2160": " rude",
    "2161": " huge",
    "2162": " Jim",
    "2163": " coin",
    "2164": " stars",
    "2165": " fighting",
    "2166": "Be",
    "2167": " spicy",
    "2168": " lucky",
    "2169": "Of",
    "2170": " craw",
    "2171": "Hey",
    "2172": " bone",
    "2173": " inv",
    "2174": " Grandma",
    "2175": "ors",
    "2176": "not",
    "2177": " ca",
    "2178": "pper",
    "2179": " forget",
    "2180": "up",
    "2181": " di",
    "2182": "aur",
    "2183": " sal",
    "2184": " Finally",
    "2185": " cannot",
    "2186": " whistle",
    "2187": " card",
    "2188": " sick",
    "2189": " path",
    "2190": " cou",
    "2191": " spider",
    "2192": " wide",
    "2193": "Lila",
    "2194": " foot",
    "2195": " snowman",
    "2196": " songs",
    "2197": " life",
    "2198": " pillow",
    "2199": "ize",
    "2200": "ular",
    "2201": " Just",
    "2202": "Later",
    "2203": "est",
    "2204": " Ann",
    "2205": "ert",
    "2206": " fixed",
    "2207": " giant",
    "2208": "oph",
    "2209": "rill",
    "2210": " nod",
    "2211": " boss",
    "2212": " last",
    "2213": " comes",
    "2214": " joke",
    "2215": " moon",
    "2216": " taste",
    "2217": "den",
    "2218": " machine",
    "2219": " grumpy",
    "2220": " wave",
    "2221": " thin",
    "2222": " drive",
    "2223": " cart",
    "2224": " ash",
    "2225": " ser",
    "2226": " grab",
    "2227": " peace",
    "2228": "lower",
    "2229": " daddy",
    "2230": " On",
    "2231": " Leo",
    "2232": "ery",
    "2233": " sel",
    "2234": " shelf",
    "2235": " hidden",
    "2236": "erest",
    "2237": " suddenly",
    "2238": " wasn",
    "2239": " write",
    "2240": " landed",
    "2241": " confused",
    "2242": " ring",
    "2243": " change",
    "2244": " worm",
    "2245": " interest",
    "2246": " chased",
    "2247": "oop",
    "2248": " fruits",
    "2249": " sour",
    "2250": "ity",
    "2251": " myster",
    "2252": " bark",
    "2253": " rad",
    "2254": " smooth",
    "2255": " Come",
    "2256": " adventures",
    "2257": " val",
    "2258": " stepped",
    "2259": " fle",
    "2260": "ope",
    "2261": " oven",
    "2262": " takes",
    "2263": " missed",
    "2264": " selfish",
    "2265": "kin",
    "2266": " sheep",
    "2267": " messy",
    "2268": "To",
    "2269": " across",
    "2270": " ent",
    "2271": " exp",
    "2272": "to",
    "2273": " ce",
    "2274": " later",
    "2275": "elly",
    "2276": " N",
    "2277": "ife",
    "2278": " sticks",
    "2279": " tie",
    "2280": "St",
    "2281": "ever",
    "2282": " Luna",
    "2283": " step",
    "2284": " bought",
    "2285": " drew",
    "2286": " tea",
    "2287": "pect",
    "2288": " ban",
    "2289": "irpy",
    "2290": "box",
    "2291": "?”",
    "2292": " wash",
    "2293": " lay",
    "2294": " pour",
    "2295": " beak",
    "2296": "ose",
    "2297": " jog",
    "2298": " grate",
    "2299": " ducks",
    "2300": " spe",
    "2301": " legs",
    "2302": "ugg",
    "2303": " fil",
    "2304": " Bu",
    "2305": " emp",
    "2306": "mer",
    "2307": " hope",
    "2308": " empty",
    "2309": " slid",
    "2310": " feather",
    "2311": " sleepy",
    "2312": " drum",
    "2313": "amed",
    "2314": "ars",
    "2315": "eth",
    "2316": " zoo",
    "2317": " pan",
    "2318": " phone",
    "2319": " grateful",
    "2320": " fing",
    "2321": "ions",
    "2322": " lemon",
    "2323": "let",
    "2324": " Cat",
    "2325": " clever",
    "2326": " Molly",
    "2327": " smelly",
    "2328": " imag",
    "2329": " splash",
    "2330": " interesting",
    "2331": " Jill",
    "2332": " save",
    "2333": " chick",
    "2334": " calm",
    "2335": " med",
    "2336": " watching",
    "2337": "Soon",
    "2338": "izzy",
    "2339": "izz",
    "2340": " plate",
    "2341": " ign",
    "2342": "yard",
    "2343": " clouds",
    "2344": " banan",
    "2345": " line",
    "2346": " faces",
    "2347": " ba",
    "2348": " act",
    "2349": " lift",
    "2350": " though",
    "2351": " wolf",
    "2352": " backyard",
    "2353": "wel",
    "2354": " seemed",
    "2355": " dogs",
    "2356": " spray",
    "2357": "Come",
    "2358": " prot",
    "2359": " whole",
    "2360": " mot",
    "2361": " fancy",
    "2362": " Daddy",
    "2363": " quest",
    "2364": " arms",
    "2365": " puzzle",
    "2366": " healthy",
    "2367": " supp",
    "2368": "ward",
    "2369": " finish",
    "2370": "erly",
    "2371": " along",
    "2372": "llo",
    "2373": " rocket",
    "2374": " explain",
    "2375": "dge",
    "2376": " easy",
    "2377": " jewel",
    "2378": "ont",
    "2379": " pract",
    "2380": " jelly",
    "2381": " Chirpy",
    "2382": " tid",
    "2383": " fake",
    "2384": " crayons",
    "2385": " wondered",
    "2386": " maybe",
    "2387": " scar",
    "2388": " ship",
    "2389": " nothing",
    "2390": "onest",
    "2391": " emb",
    "2392": "iger",
    "2393": " pool",
    "2394": " longer",
    "2395": " anyone",
    "2396": " Be",
    "2397": " Jerry",
    "2398": "ually",
    "2399": " front",
    "2400": " working",
    "2401": " gives",
    "2402": "irr",
    "2403": " pack",
    "2404": " such",
    "2405": " Bunny",
    "2406": "ocked",
    "2407": "ment",
    "2408": " bossy",
    "2409": " Doggy",
    "2410": " trouble",
    "2411": " smelled",
    "2412": " saved",
    "2413": " pin",
    "2414": "rass",
    "2415": " neigh",
    "2416": "arrass",
    "2417": "iting",
    "2418": " honest",
    "2419": " av",
    "2420": "arge",
    "2421": " embarrass",
    "2422": " van",
    "2423": " forgive",
    "2424": " tidy",
    "2425": " weak",
    "2426": "urse",
    "2427": " puts",
    "2428": "unk",
    "2429": " kick",
    "2430": " shirt",
    "2431": " With",
    "2432": " mind",
    "2433": " Ollie",
    "2434": " neighb",
    "2435": " plants",
    "2436": " sol",
    "2437": " Momo",
    "2438": " gently",
    "2439": " cozy",
    "2440": "orrow",
    "2441": "ming",
    "2442": " explor",
    "2443": "sp",
    "2444": " mistake",
    "2445": " yog",
    "2446": "oc",
    "2447": "oomy",
    "2448": " pointed",
    "2449": " lad",
    "2450": " af",
    "2451": " stood",
    "2452": "ork",
    "2453": " onto",
    "2454": " waiting",
    "2455": " jumping",
    "2456": " prince",
    "2457": " cross",
    "2458": " lock",
    "2459": " cheer",
    "2460": " queen",
    "2461": " Why",
    "2462": " Mary",
    "2463": " wing",
    "2464": "ones",
    "2465": "we",
    "2466": " large",
    "2467": " lovely",
    "2468": "ult",
    "2469": " sur",
    "2470": " ret",
    "2471": "And",
    "2472": " deer",
    "2473": " chew",
    "2474": " couch",
    "2475": " bal",
    "2476": "aughter",
    "2477": " stret",
    "2478": "era",
    "2479": " Their",
    "2480": " places",
    "2481": " My",
    "2482": " ladder",
    "2483": "oof",
    "2484": " return",
    "2485": "raid",
    "2486": " ants",
    "2487": " dish",
    "2488": " afraid",
    "2489": " cleaned",
    "2490": " tomorrow",
    "2491": " building",
    "2492": " sandwich",
    "2493": " person",
    "2494": "Sally",
    "2495": "ned",
    "2496": " pretended",
    "2497": " bounce",
    "2498": " wip",
    "2499": "gest",
    "2500": " match",
    "2501": " rich",
    "2502": "uce",
    "2503": " pizz",
    "2504": " gather",
    "2505": " search",
    "2506": " boring",
    "2507": "oman",
    "2508": " Somet",
    "2509": " teeth",
    "2510": " hum",
    "2511": "Kitty",
    "2512": "My",
    "2513": "aced",
    "2514": " daughter",
    "2515": " woman",
    "2516": " scarf",
    "2517": " goes",
    "2518": " Together",
    "2519": " law",
    "2520": " stra",
    "2521": " swimming",
    "2522": " furry",
    "2523": " splashed",
    "2524": " pri",
    "2525": " loves",
    "2526": " true",
    "2527": " screamed",
    "2528": " lazy",
    "2529": " gen",
    "2530": " answer",
    "2531": " number",
    "2532": " eag",
    "2533": " ashamed",
    "2534": " pizza",
    "2535": "aw",
    "2536": " appeared",
    "2537": " fear",
    "2538": " nearby",
    "2539": " powerful",
    "2540": " flag",
    "2541": " St",
    "2542": " hang",
    "2543": "vous",
    "2544": " clown",
    "2545": "ek",
    "2546": " chase",
    "2547": " motor",
    "2548": " wand",
    "2549": " TV",
    "2550": " rub",
    "2551": " success",
    "2552": " chocol",
    "2553": " If",
    "2554": " creative",
    "2555": " trust",
    "2556": " wearing",
    "2557": " noisy",
    "2558": " matter",
    "2559": "pa",
    "2560": " dig",
    "2561": " hello",
    "2562": " ner",
    "2563": " tool",
    "2564": " saf",
    "2565": " Bird",
    "2566": "ado",
    "2567": " nervous",
    "2568": "elp",
    "2569": " test",
    "2570": " smiling",
    "2571": " sold",
    "2572": "icked",
    "2573": "oppy",
    "2574": "osaur",
    "2575": " circle",
    "2576": "mb",
    "2577": " map",
    "2578": " drank",
    "2579": " class",
    "2580": " tries",
    "2581": " chocolate",
    "2582": " Please",
    "2583": " impress",
    "2584": " knee",
    "2585": " gener",
    "2586": " dinosaur",
    "2587": " polite",
    "2588": " mirr",
    "2589": " Bobby",
    "2590": " Tiny",
    "2591": " balloons",
    "2592": " gold",
    "2593": " rare",
    "2594": " protect",
    "2595": " cand",
    "2596": "Stop",
    "2597": " carried",
    "2598": " Go",
    "2599": "ensive",
    "2600": " ap",
    "2601": " shadow",
    "2602": " mirror",
    "2603": " Don",
    "2604": " bald",
    "2605": " gun",
    "2606": "ina",
    "2607": " expensive",
    "2608": " reg",
    "2609": "iff",
    "2610": " mysterious",
    "2611": " Sp",
    "2612": " pump",
    "2613": " note",
    "2614": " hero",
    "2615": " march",
    "2616": " har",
    "2617": "arl",
    "2618": " icy",
    "2619": " respect",
    "2620": " weird",
    "2621": " snee",
    "2622": " cri",
    "2623": " gate",
    "2624": " soap",
    "2625": "rag",
    "2626": "ute",
    "2627": "issors",
    "2628": " these",
    "2629": " poor",
    "2630": " towel",
    "2631": " whale",
    "2632": " feet",
    "2633": " tape",
    "2634": " dizzy",
    "2635": "itter",
    "2636": " generous",
    "2637": "ndpa",
    "2638": " pres",
    "2639": " Benny",
    "2640": "nic",
    "2641": " disco",
    "2642": "Help",
    "2643": "ventually",
    "2644": " picnic",
    "2645": " mic",
    "2646": " lead",
    "2647": " sque",
    "2648": " embarrassed",
    "2649": " journey",
    "2650": " sugar",
    "2651": "isp",
    "2652": "scape",
    "2653": " boot",
    "2654": " tent",
    "2655": " peaceful",
    "2656": " fat",
    "2657": " Bear",
    "2658": " scissors",
    "2659": " tasted",
    "2660": " yelled",
    "2661": "Tommy",
    "2662": " tick",
    "2663": " mel",
    "2664": " brush",
    "2665": " dancing",
    "2666": "ness",
    "2667": " glue",
    "2668": " hur",
    "2669": " rough",
    "2670": " clap",
    "2671": " bridge",
    "2672": "ote",
    "2673": " decor",
    "2674": " closet",
    "2675": " crown",
    "2676": " stir",
    "2677": "ual",
    "2678": "imp",
    "2679": " print",
    "2680": " Sometimes",
    "2681": "owed",
    "2682": "airs",
    "2683": " How",
    "2684": "ume",
    "2685": " cap",
    "2686": " lamp",
    "2687": " vase",
    "2688": " scare",
    "2689": "lebr",
    "2690": " relie",
    "2691": "lves",
    "2692": "any",
    "2693": " eld",
    "2694": " tele",
    "2695": " celebr",
    "2696": " gigg",
    "2697": " whisp",
    "2698": " log",
    "2699": " sco",
    "2700": " blow",
    "2701": " painted",
    "2702": " Ducky",
    "2703": " pay",
    "2704": "erries",
    "2705": " wis",
    "2706": " berries",
    "2707": " mixed",
    "2708": " spread",
    "2709": " wouldn",
    "2710": " cage",
    "2711": " bake",
    "2712": "rob",
    "2713": "getable",
    "2714": " mountain",
    "2715": " adm",
    "2716": " drawing",
    "2717": " become",
    "2718": " famous",
    "2719": " knocked",
    "2720": " bean",
    "2721": " norm",
    "2722": " vegetable",
    "2723": "asp",
    "2724": " kicked",
    "2725": "ustr",
    "2726": " shark",
    "2727": "ser",
    "2728": " incred",
    "2729": " lose",
    "2730": " normal",
    "2731": " wrap",
    "2732": "ced",
    "2733": " group",
    "2734": " thick",
    "2735": " 3",
    "2736": " fine",
    "2737": " glass",
    "2738": " ignor",
    "2739": " clock",
    "2740": " team",
    "2741": " elderly",
    "2742": " clear",
    "2743": " corner",
    "2744": " frustr",
    "2745": " mighty",
    "2746": "robe",
    "2747": " cone",
    "2748": " incredible",
    "2749": " Br",
    "2750": "ighed",
    "2751": "Dad",
    "2752": " moms",
    "2753": " balance",
    "2754": " sock",
    "2755": " space",
    "2756": " jam",
    "2757": "ragile",
    "2758": " fright",
    "2759": " organized",
    "2760": " branches",
    "2761": " roar",
    "2762": "port",
    "2763": " sword",
    "2764": "alous",
    "2765": " Mama",
    "2766": " guess",
    "2767": " fool",
    "2768": " sell",
    "2769": " feed",
    "2770": " Some",
    "2771": " which",
    "2772": " horn",
    "2773": " present",
    "2774": " jealous",
    "2775": " yarn",
    "2776": "ony",
    "2777": " fragile",
    "2778": " burn",
    "2779": " understood",
    "2780": " mis",
    "2781": " stubb",
    "2782": " ter",
    "2783": " frustrated",
    "2784": "Where",
    "2785": "ray",
    "2786": " hose",
    "2787": "cient",
    "2788": " spent",
    "2789": " shoe",
    "2790": " taught",
    "2791": " stubborn",
    "2792": " twist",
    "2793": " creature",
    "2794": " chest",
    "2795": " spoiled",
    "2796": " relieved",
    "2797": " ancient",
    "2798": "ique",
    "2799": " wake",
    "2800": " fier",
    "2801": " pray",
    "2802": " fierce",
    "2803": " eggs",
    "2804": " cab",
    "2805": " terri",
    "2806": " barn",
    "2807": " pumpkin",
    "2808": " comfortable",
    "2809": " ord",
    "2810": "ym",
    "2811": " frightened",
    "2812": "orry",
    "2813": " toug",
    "2814": " unique",
    "2815": " measure",
    "2816": " goat",
    "2817": " wagon",
    "2818": " unus",
    "2819": " breath",
    "2820": " foolish",
    "2821": " useful",
    "2822": " exploring",
    "2823": "dle",
    "2824": " straw",
    "2825": " unusual",
    "2826": " dug",
    "2827": " clay",
    "2828": " discover",
    "2829": " tomato",
    "2830": " Pe",
    "2831": " dead",
    "2832": " finding",
    "2833": " police",
    "2834": " wrote",
    "2835": " clum",
    "2836": " exam",
    "2837": "lace",
    "2838": " waves",
    "2839": " square",
    "2840": " hears",
    "2841": " cabin",
    "2842": " tells",
    "2843": " necklace",
    "2844": " dull",
    "2845": " clumsy",
    "2846": " tough",
    "2847": " bubbles",
    "2848": " nosy",
    "2849": "kn",
    "2850": " searched",
    "2851": "Together",
    "2852": " washed",
    "2853": " bathroom",
    "2854": " paws",
    "2855": "bby",
    "2856": "ond",
    "2857": "unn",
    "2858": "anged",
    "2859": " board",
    "2860": "fic",
    "2861": "known",
    "2862": " asking",
    "2863": " crazy",
    "2864": " thankful",
    "2865": " sunf",
    "2866": " bitter",
    "2867": "yal",
    "2868": " pir",
    "2869": "berry",
    "2870": "alk",
    "2871": " ind",
    "2872": " diffic",
    "2873": " rose",
    "2874": "cil",
    "2875": " swan",
    "2876": " bloom",
    "2877": " unknown",
    "2878": " Ella",
    "2879": " covered",
    "2880": " difficult",
    "2881": " add",
    "2882": " pencil",
    "2883": " finger",
    "2884": " ham",
    "2885": " hoop",
    "2886": " jet",
    "2887": " witch",
    "2888": " drop",
    "2889": "Me",
    "2890": " '",
    "2891": " chicken",
    "2892": " gloomy",
    "2893": "apped",
    "2894": " loyal",
    "2895": "als",
    "2896": "Here",
    "2897": " wealthy",
    "2898": "com",
    "2899": "light",
    "2900": " unl",
    "2901": " cats",
    "2902": " ending",
    "2903": " guit",
    "2904": "bled",
    "2905": "shine",
    "2906": " dove",
    "2907": " joined",
    "2908": " cher",
    "2909": "anut",
    "2910": " mov",
    "2911": " terrible",
    "2912": " yours",
    "2913": "iant",
    "2914": " U",
    "2915": " Rex",
    "2916": " salad",
    "2917": " Andy",
    "2918": " nuts",
    "2919": " rat",
    "2920": "ground",
    "2921": " tiger",
    "2922": " potato",
    "2923": " mask",
    "2924": "xible",
    "2925": "selves",
    "2926": " value",
    "2927": " changed",
    "2928": " moving",
    "2929": " exciting",
    "2930": "ormous",
    "2931": " Many",
    "2932": " body",
    "2933": " Tr",
    "2934": " toast",
    "2935": " record",
    "2936": "erp",
    "2937": " zip",
    "2938": " disg",
    "2939": " cheap",
    "2940": " guitar",
    "2941": "irsty",
    "2942": " knowing",
    "2943": " adventur",
    "2944": " yourself",
    "2945": " enormous",
    "2946": " hairy",
    "2947": "Every",
    "2948": " shoot",
    "2949": " Brown",
    "2950": " bored",
    "2951": " pepper",
    "2952": " remind",
    "2953": "ory",
    "2954": "land",
    "2955": " acorn",
    "2956": " adventurous",
    "2957": " sunshine",
    "2958": " smaller",
    "2959": " stuff",
    "2960": " hats",
    "2961": " solve",
    "2962": " Jimmy",
    "2963": " flexible",
    "2964": " cost",
    "2965": "rilliant",
    "2966": " knife",
    "2967": " perform",
    "2968": " snacks",
    "2969": " nods",
    "2970": " shore",
    "2971": " brilliant",
    "2972": " thirsty",
    "2973": " delicate",
    "2974": " frown",
    "2975": " disgust",
    "2976": " collect",
    "2977": " stri",
    "2978": " seeds",
    "2979": " counted",
    "2980": " asleep",
    "2981": " banana",
    "2982": "reen",
    "2983": " mailbox",
    "2984": "iness",
    "2985": " dough",
    "2986": " trick",
    "2987": " neighbor",
    "2988": "ungle",
    "2989": " heal",
    "2990": "live",
    "2991": "Who",
    "2992": " stage",
    "2993": "ident",
    "2994": " market",
    "2995": " cube",
    "2996": " stat",
    "2997": " jungle",
    "2998": " squee",
    "2999": "mbre",
    "3000": " explained",
    "3001": "ates",
    "3002": " umbre",
    "3003": " disgusting",
    "3004": "Jim",
    "3005": "fted",
    "3006": " lab",
    "3007": " jolly",
    "3008": " flash",
    "3009": "und",
    "3010": " fridge",
    "3011": "inal",
    "3012": "pid",
    "3013": "ilt",
    "3014": " crane",
    "3015": "corn",
    "3016": " suit",
    "3017": " rh",
    "3018": "iddle",
    "3019": " sunflower",
    "3020": " times",
    "3021": " Al",
    "3022": "erpill",
    "3023": " caterpill",
    "3024": " relax",
    "3025": " shiver",
    "3026": " four",
    "3027": " island",
    "3028": "iginal",
    "3029": " harm",
    "3030": "ict",
    "3031": " While",
    "3032": "ying",
    "3033": " stupid",
    "3034": " medic",
    "3035": " Instead",
    "3036": " comb",
    "3037": " goose",
    "3038": " cro",
    "3039": "edient",
    "3040": " Will",
    "3041": " stove",
    "3042": "If",
    "3043": "Are",
    "3044": " independ",
    "3045": "Mum",
    "3046": "most",
    "3047": " spring",
    "3048": " gem",
    "3049": " batter",
    "3050": " sighed",
    "3051": " vegetables",
    "3052": " stones",
    "3053": "pes",
    "3054": " shine",
    "3055": "How",
    "3056": " medicine",
    "3057": " depend",
    "3058": " rug",
    "3059": " Your",
    "3060": " careless",
    "3061": " original",
    "3062": " stamp",
    "3063": " gar",
    "3064": " cries",
    "3065": "Inside",
    "3066": "gu",
    "3067": " carrots",
    "3068": " scr",
    "3069": " successful",
    "3070": " sauce",
    "3071": " jeep",
    "3072": " popcorn",
    "3073": " meal",
    "3074": " obedient",
    "3075": " almost",
    "3076": " middle",
    "3077": " magn",
    "3078": " study",
    "3079": " independent",
    "3080": " fearful",
    "3081": " jack",
    "3082": "met",
    "3083": "inky",
    "3084": "Sorry",
    "3085": " Sammy",
    "3086": " escape",
    "3087": " caterpillar",
    "3088": " serious",
    "3089": " peanut",
    "3090": " bedroom",
    "3091": " eager",
    "3092": "aken",
    "3093": " gets",
    "3094": " parrot",
    "3095": " statue",
    "3096": " helmet",
    "3097": " pebb",
    "3098": " No",
    "3099": " fountain",
    "3100": " raven",
    "3101": " ang",
    "3102": " pasta",
    "3103": " umbrella",
    "3104": " compet",
    "3105": "There",
    "3106": " jacket",
    "3107": " belonged",
    "3108": " dest",
    "3109": " filthy",
    "3110": " design",
    "3111": " borrow",
    "3112": " cam",
    "3113": "erable",
    "3114": " houses",
    "3115": " prize",
    "3116": " hay",
    "3117": " brace",
    "3118": " standing",
    "3119": " miserable",
    "3120": " raced",
    "3121": " taken",
    "3122": "ages",
    "3123": " fork",
    "3124": " crayon",
    "3125": " painting",
    "3126": "io",
    "3127": " triang",
    "3128": " impressive",
    "3129": " choose",
    "3130": " fig",
    "3131": " tied",
    "3132": "iable",
    "3133": " spotted",
    "3134": " lifted",
    "3135": " slipped",
    "3136": "ours",
    "3137": " tank",
    "3138": " thoughtful",
    "3139": " dependable",
    "3140": " steal",
    "3141": " garage",
    "3142": "enny",
    "3143": " built",
    "3144": " mush",
    "3145": " er",
    "3146": "ipe",
    "3147": " mole",
    "3148": " crawled",
    "3149": " scale",
    "3150": " boats",
    "3151": " pian",
    "3152": " pant",
    "3153": " hammer",
    "3154": " bottom",
    "3155": "lph",
    "3156": " cheerful",
    "3157": " using",
    "3158": " smoke",
    "3159": " picks",
    "3160": " moder",
    "3161": "berries",
    "3162": " shows",
    "3163": "rn",
    "3164": " piano",
    "3165": " magnet",
    "3166": "dile",
    "3167": "codile",
    "3168": " hurts",
    "3169": "inary",
    "3170": " ref",
    "3171": " crack",
    "3172": " eng",
    "3173": " aunt",
    "3174": " melon",
    "3175": " waff",
    "3176": " modern",
    "3177": " dolph",
    "3178": "unnel",
    "3179": "cream",
    "3180": "pack",
    "3181": " tunnel",
    "3182": "oin",
    "3183": " arrow",
    "3184": " reliable",
    "3185": " hopping",
    "3186": " mushroom",
    "3187": " jug",
    "3188": "Timmy",
    "3189": " squash",
    "3190": " gum",
    "3191": " sink",
    "3192": " movie",
    "3193": " tax",
    "3194": " flute",
    "3195": " beet",
    "3196": " lean",
    "3197": "Their",
    "3198": "iv",
    "3199": " popular",
    "3200": "opter",
    "3201": "icopter",
    "3202": " cryst",
    "3203": " ones",
    "3204": " sil",
    "3205": " competit",
    "3206": " helicopter",
    "3207": "aser",
    "3208": " needs",
    "3209": "ipop",
    "3210": "llipop",
    "3211": " crocodile",
    "3212": " liz",
    "3213": "Molly",
    "3214": " press",
    "3215": " troubled",
    "3216": " pige",
    "3217": " locked",
    "3218": " tricks",
    "3219": " lollipop",
    "3220": " playful",
    "3221": " humble",
    "3222": " taxi",
    "3223": " kissed",
    "3224": " low",
    "3225": "appy",
    "3226": "comfortable",
    "3227": "amond",
    "3228": " uncomfortable",
    "3229": " rid",
    "3230": "host",
    "3231": " wander",
    "3232": "atch",
    "3233": " angel",
    "3234": "edy",
    "3235": "cles",
    "3236": " torn",
    "3237": " grace",
    "3238": " anx",
    "3239": " wrapped",
    "3240": " muff",
    "3241": " twig",
    "3242": " pants",
    "3243": " disappoin",
    "3244": " Sn",
    "3245": " helps",
    "3246": " diamond",
    "3247": " camera",
    "3248": "atter",
    "3249": "oto",
    "3250": " anxious",
    "3251": " ghost",
    "3252": " tears",
    "3253": " ruined",
    "3254": "cident",
    "3255": " Jenny",
    "3256": "ilty",
    "3257": " quar",
    "3258": "aff",
    "3259": " Even",
    "3260": " fis",
    "3261": "opl",
    "3262": " belt",
    "3263": "eropl",
    "3264": " env",
    "3265": " guilty",
    "3266": " bull",
    "3267": " aeropl",
    "3268": " helpless",
    "3269": " happiness",
    "3270": " lizard",
    "3271": " boys",
    "3272": "cut",
    "3273": "ext",
    "3274": " cere",
    "3275": " walks",
    "3276": "cean",
    "3277": " passed",
    "3278": " meant",
    "3279": " ocean",
    "3280": " fluffy",
    "3281": " wire",
    "3282": " nail",
    "3283": " bracelet",
    "3284": " deaf",
    "3285": "zed",
    "3286": " stretch",
    "3287": " candle",
    "3288": " cact",
    "3289": "tt",
    "3290": " beetle",
    "3291": " mop",
    "3292": " harmless",
    "3293": "umpet",
    "3294": " ordinary",
    "3295": " answered",
    "3296": " collar",
    "3297": " cop",
    "3298": " bees",
    "3299": " tire",
    "3300": " shape",
    "3301": " quarrel",
    "3302": " radio",
    "3303": " flashlight",
    "3304": " crystal",
    "3305": " harder",
    "3306": " poured",
    "3307": " trumpet",
    "3308": " engine",
    "3309": "Mama",
    "3310": " persist",
    "3311": " hunt",
    "3312": " tooth",
    "3313": " cereal",
    "3314": " invited",
    "3315": " comput",
    "3316": " tag",
    "3317": " office",
    "3318": " melt",
    "3319": " spill",
    "3320": " charm",
    "3321": "coa",
    "3322": " lit",
    "3323": " scoot",
    "3324": " comet",
    "3325": " triangle",
    "3326": "ief",
    "3327": " mug",
    "3328": " rep",
    "3329": "ube",
    "3330": " yogurt",
    "3331": " spend",
    "3332": " compass",
    "3333": " accident",
    "3334": " shade",
    "3335": "hett",
    "3336": "aghett",
    "3337": "aghetti",
    "3338": " disappointed",
    "3339": " licked",
    "3340": " cactus",
    "3341": " pale",
    "3342": " cush",
    "3343": " figure",
    "3344": " regular",
    "3345": " giving",
    "3346": " avoc",
    "3347": " pro",
    "3348": " sheet",
    "3349": " whispered",
    "3350": "aze",
    "3351": "uth",
    "3352": "ellig",
    "3353": " create",
    "3354": " barber",
    "3355": " intellig",
    "3356": " pipe",
    "3357": " rode",
    "3358": " roof",
    "3359": "Jane",
    "3360": " thread",
    "3361": "ither",
    "3362": " vi",
    "3363": " load",
    "3364": " libr",
    "3365": " gifted",
    "3366": "ccol",
    "3367": " practiced",
    "3368": " delight",
    "3369": "ccoli",
    "3370": " harsh",
    "3371": "asses",
    "3372": " pow",
    "3373": " dust",
    "3374": " True",
    "3375": " bicy",
    "3376": "azz",
    "3377": " spaghetti",
    "3378": " compassion",
    "3379": " sailed",
    "3380": "urkey",
    "3381": "ubby",
    "3382": " forward",
    "3383": " persistent",
    "3384": " speed",
    "3385": " mitten",
    "3386": " cocoa",
    "3387": " envel",
    "3388": " questions",
    "3389": " computer",
    "3390": " coo",
    "3391": " feathers",
    "3392": "hip",
    "3393": " glove",
    "3394": "ging",
    "3395": "Bobo",
    "3396": " rice",
    "3397": " shrimp",
    "3398": " desk",
    "3399": " stream",
    "3400": " inse",
    "3401": " pigeon",
    "3402": " charming",
    "3403": " ears",
    "3404": " carp",
    "3405": "lcan",
    "3406": " raft",
    "3407": " envious",
    "3408": " knot",
    "3409": " turkey",
    "3410": " stronger",
    "3411": "omes",
    "3412": " coins",
    "3413": " tap",
    "3414": "lcano",
    "3415": "weet",
    "3416": " trap",
    "3417": "umbers",
    "3418": " aeroplane",
    "3419": " trunk",
    "3420": " wheat",
    "3421": " boxes",
    "3422": " chubby",
    "3423": " carpet",
    "3424": " restless",
    "3425": " intelligent",
    "3426": " tube",
    "3427": " spun",
    "3428": " dreams",
    "3429": " friendship",
    "3430": "ulif",
    "3431": "olin",
    "3432": " half",
    "3433": " loop",
    "3434": " crawl",
    "3435": " broccoli",
    "3436": " onion",
    "3437": " deliver",
    "3438": "anger",
    "3439": " acce",
    "3440": " vide",
    "3441": " volcano",
    "3442": " Jake",
    "3443": " sle",
    "3444": " track",
    "3445": " bri",
    "3446": " caulif",
    "3447": " vine",
    "3448": "ye",
    "3449": " ticket",
    "3450": " thief",
    "3451": "essie",
    "3452": "cycle",
    "3453": " louder",
    "3454": " insect",
    "3455": " numbers",
    "3456": "asing",
    "3457": " yaw",
    "3458": " haircut",
    "3459": "ital",
    "3460": " sleeping",
    "3461": " mill",
    "3462": " eventually",
    "3463": " alert",
    "3464": " excite",
    "3465": " pebble",
    "3466": " hosp",
    "3467": " attract",
    "3468": " planet",
    "3469": " Today",
    "3470": " univer",
    "3471": "isted",
    "3472": "ulu",
    "3473": " hospital",
    "3474": " eraser",
    "3475": " returned",
    "3476": " destro",
    "3477": " graceful",
    "3478": " happening",
    "3479": "ache",
    "3480": " OK",
    "3481": " Emily",
    "3482": " decide",
    "3483": " learning",
    "3484": " screen",
    "3485": "rework",
    "3486": " nicely",
    "3487": " leop",
    "3488": " cauliflower",
    "3489": " competitive",
    "3490": " poem",
    "3491": " celebrate",
    "3492": " curt",
    "3493": " peach",
    "3494": " soldier",
    "3495": " saus",
    "3496": " parade",
    "3497": "atient",
    "3498": " attractive",
    "3499": " curtain",
    "3500": " dolphin",
    "3501": " base",
    "3502": " violin",
    "3503": " ways",
    "3504": "Go",
    "3505": "ats",
    "3506": " travel",
    "3507": "ten",
    "3508": " rod",
    "3509": " ignorant",
    "3510": "ulb",
    "3511": " wheels",
    "3512": " yach",
    "3513": " scatter",
    "3514": " deter",
    "3515": " compassionate",
    "3516": " barrel",
    "3517": " envelope",
    "3518": " bubble",
    "3519": " lying",
    "3520": " firework",
    "3521": " sort",
    "3522": " question",
    "3523": "zzy",
    "3524": " Pipp",
    "3525": " scooter",
    "3526": " determ",
    "3527": " rag",
    "3528": " thu",
    "3529": " bicycle",
    "3530": "elery",
    "3531": " needle",
    "3532": " Fr",
    "3533": " judge",
    "3534": " bulb",
    "3535": " leopard",
    "3536": " tem",
    "3537": " yacht",
    "3538": " pony",
    "3539": " cricket",
    "3540": " order",
    "3541": " homes",
    "3542": " ador",
    "3543": "tern",
    "3544": " truth",
    "3545": " hook",
    "3546": "dom",
    "3547": " rubbed",
    "3548": "ete",
    "3549": "igator",
    "3550": " bushes",
    "3551": "Sarah",
    "3552": " uncle",
    "3553": " cushion",
    "3554": " spell",
    "3555": " grown",
    "3556": " cooked",
    "3557": " adorable",
    "3558": " chalk",
    "3559": " soar",
    "3560": " purse",
    "3561": " skin",
    "3562": " themselves",
    "3563": " impatient",
    "3564": " celery",
    "3565": " tray",
    "3566": " shells",
    "3567": " pengu",
    "3568": " sniff",
    "3569": " prun",
    "3570": " walls",
    "3571": " seal",
    "3572": " lively",
    "3573": " case",
    "3574": " alligator",
    "3575": " distant",
    "3576": " radish",
    "3577": " saying",
    "3578": " speak",
    "3579": " motorcycle",
    "3580": " meat",
    "3581": " send",
    "3582": "illa",
    "3583": " spinning",
    "3584": " forth",
    "3585": " counting",
    "3586": " enth",
    "3587": " bounced",
    "3588": " chain",
    "3589": " ed",
    "3590": " cleaning",
    "3591": "ebra",
    "3592": " film",
    "3593": " slept",
    "3594": " pit",
    "3595": " surf",
    "3596": " marry",
    "3597": "usia",
    "3598": " wallet",
    "3599": " enthusia",
    "3600": " metal",
    "3601": "urb",
    "3602": "ebook",
    "3603": " bin",
    "3604": " week",
    "3605": " notebook",
    "3606": " wiped",
    "3607": " skip",
    "3608": "ision",
    "3609": "chair",
    "3610": " biggest",
    "3611": " impro",
    "3612": " avocado",
    "3613": " behave",
    "3614": " destroy",
    "3615": "vator",
    "3616": " bandage",
    "3617": " laughs",
    "3618": " steak",
    "3619": " pattern",
    "3620": " Sh",
    "3621": " post",
    "3622": " elevator",
    "3623": " Buzz",
    "3624": "usie",
    "3625": " dive",
    "3626": " shut",
    "3627": " skipped",
    "3628": " unlock",
    "3629": " diary",
    "3630": "dest",
    "3631": "ject",
    "3632": " zebra",
    "3633": " bags",
    "3634": "ating",
    "3635": " armchair",
    "3636": "rage",
    "3637": "aged",
    "3638": " disturb",
    "3639": " oy",
    "3640": " pole",
    "3641": " showing",
    "3642": " gathered",
    "3643": " club",
    "3644": " nurse",
    "3645": "bul",
    "3646": " earth",
    "3647": " enc",
    "3648": " stranger",
    "3649": " sweater",
    "3650": " jellyfish",
    "3651": " screw",
    "3652": " temp",
    "3653": " Poppy",
    "3654": " compl",
    "3655": " mixer",
    "3656": "Give",
    "3657": " skull",
    "3658": " lime",
    "3659": " bump",
    "3660": "bulance",
    "3661": " ambulance",
    "3662": "nam",
    "3663": " father",
    "3664": " journal",
    "3665": "Gra",
    "3666": " loudly",
    "3667": "ito",
    "3668": " folder",
    "3669": " shield",
    "3670": " Bet",
    "3671": " Lulu",
    "3672": " library",
    "3673": " Peter",
    "3674": " buttons",
    "3675": " playground",
    "3676": " trucks",
    "3677": " ink",
    "3678": " lights",
    "3679": " tummy",
    "3680": " pointing",
    "3681": " city",
    "3682": " decorate",
    "3683": " station",
    "3684": "irit",
    "3685": " prep",
    "3686": " falls",
    "3687": "quito",
    "3688": " Polly",
    "3689": "Billy",
    "3690": " fu",
    "3691": " Fo",
    "3692": "ention",
    "3693": "nger",
    "3694": " Birdy",
    "3695": "lies",
    "3696": " herb",
    "3697": "nament",
    "3698": " ornament",
    "3699": " modest",
    "3700": " guard",
    "3701": " mos",
    "3702": " knows",
    "3703": " cord",
    "3704": " polish",
    "3705": " marble",
    "3706": "oby",
    "3707": " mosquito",
    "3708": "umbled",
    "3709": " salt",
    "3710": " attic",
    "3711": " whenever",
    "3712": " vest",
    "3713": "ctop",
    "3714": " resc",
    "3715": " yet",
    "3716": " ple",
    "3717": " disappeared",
    "3718": "ceed",
    "3719": " strawberry",
    "3720": " once",
    "3721": " Mum",
    "3722": " kay",
    "3723": " brothers",
    "3724": " itch",
    "3725": " pirate",
    "3726": " football",
    "3727": " split",
    "3728": "kele",
    "3729": "keleton",
    "3730": " hipp",
    "3731": " aut",
    "3732": " led",
    "3733": "uring",
    "3734": "ctopus",
    "3735": " driving",
    "3736": " cable",
    "3737": " support",
    "3738": " calling",
    "3739": " cupboard",
    "3740": "aky",
    "3741": "ushed",
    "3742": " wishes",
    "3743": " complet",
    "3744": " tripped",
    "3745": " root",
    "3746": " kayak",
    "3747": " octopus",
    "3748": "obile",
    "3749": " added",
    "3750": " edge",
    "3751": " mild",
    "3752": "stic",
    "3753": " determined",
    "3754": " succeed",
    "3755": "?\".",
    "3756": " reading",
    "3757": "omobile",
    "3758": " coal",
    "3759": "Well",
    "3760": "gl",
    "3761": "utes",
    "3762": "par",
    "3763": " suggest",
    "3764": " stack",
    "3765": " thunder",
    "3766": " kindness",
    "3767": " automobile",
    "3768": " complain",
    "3769": " enthusiastic",
    "3770": " sneeze",
    "3771": " cartoon",
    "3772": " yoga",
    "3773": " Little",
    "3774": " growl",
    "3775": "htub",
    "3776": " flea",
    "3777": "la",
    "3778": " meadow",
    "3779": " drawer",
    "3780": " bathtub",
    "3781": " ribb",
    "3782": "ophone",
    "3783": " means",
    "3784": " hall",
    "3785": " golf",
    "3786": " skeleton",
    "3787": " math",
    "3788": " veil",
    "3789": " hunter",
    "3790": " gor",
    "3791": " flame",
    "3792": " poke",
    "3793": " video",
    "3794": " chess",
    "3795": " troph",
    "3796": " cups",
    "3797": " glowing",
    "3798": " matt",
    "3799": " oyster",
    "3800": "work",
    "3801": " penny",
    "3802": " spear",
    "3803": " itself",
    "3804": " drawings",
    "3805": " hippo",
    "3806": " repair",
    "3807": " switch",
    "3808": "glasses",
    "3809": " sunglasses",
    "3810": " teleph",
    "3811": " costume",
    "3812": " dess",
    "3813": " zipp",
    "3814": ",”",
    "3815": " repe",
    "3816": " muffin",
    "3817": " arg",
    "3818": " pastry",
    "3819": " pun",
    "3820": " rolling",
    "3821": " minutes",
    "3822": " packed",
    "3823": " makeup",
    "3824": "iron",
    "3825": "ric",
    "3826": " People",
    "3827": " waffle",
    "3828": "case",
    "3829": " handle",
    "3830": " pear",
    "3831": " maze",
    "3832": " telephone",
    "3833": " pine",
    "3834": "ait",
    "3835": " gear",
    "3836": " hedge",
    "3837": " mattress",
    "3838": " package",
    "3839": "aving",
    "3840": " Miss",
    "3841": " shocked",
    "3842": "ines",
    "3843": " trophy",
    "3844": " powder",
    "3845": " knight",
    "3846": " cob",
    "3847": " missile",
    "3848": " managed",
    "3849": " frame",
    "3850": " encou",
    "3851": " wife",
    "3852": " ok",
    "3853": " separ",
    "3854": "web",
    "3855": " stairs",
    "3856": " rot",
    "3857": " camp",
    "3858": "urch",
    "3859": "rophone",
    "3860": " magaz",
    "3861": " strugg",
    "3862": " colour",
    "3863": " grapes",
    "3864": "time",
    "3865": " file",
    "3866": "head",
    "3867": " Tina",
    "3868": " basketball",
    "3869": "Bye",
    "3870": "old",
    "3871": "per",
    "3872": " cobweb",
    "3873": "Re",
    "3874": "Jimmy",
    "3875": " Tweet",
    "3876": "See",
    "3877": " perm",
    "3878": " wool",
    "3879": " Dan",
    "3880": " microphone",
    "3881": "esday",
    "3882": " eye",
    "3883": " leash",
    "3884": " gasp",
    "3885": "iew",
    "3886": "keep",
    "3887": " weep",
    "3888": " barking",
    "3889": "ature",
    "3890": " safely",
    "3891": " tear",
    "3892": " view",
    "3893": "ffe",
    "3894": " slides",
    "3895": " steps",
    "3896": "istol",
    "3897": "ffee",
    "3898": " bananas",
    "3899": " staff",
    "3900": " spirit",
    "3901": " task",
    "3902": " giggled",
    "3903": " hoc",
    "3904": " hockey",
    "3905": " vend",
    "3906": " those",
    "3907": " gorilla",
    "3908": "Jill",
    "3909": " cooler",
    "3910": " Rose",
    "3911": "was",
    "3912": "cing",
    "3913": " early",
    "3914": " marched",
    "3915": "rosc",
    "3916": " mint",
    "3917": " Look",
    "3918": "washer",
    "3919": " flour",
    "3920": " hotel",
    "3921": "hic",
    "3922": " sailor",
    "3923": " dessert",
    "3924": " photo",
    "3925": "roscope",
    "3926": " vehic",
    "3927": "ilot",
    "3928": " often",
    "3929": " church",
    "3930": " Pete",
    "3931": " cooking",
    "3932": " remain",
    "3933": " five",
    "3934": " sausage",
    "3935": "otter",
    "3936": " ten",
    "3937": " tools",
    "3938": " medal",
    "3939": " either",
    "3940": " fireman",
    "3941": "chor",
    "3942": " grandpa",
    "3943": " otter",
    "3944": " baseball",
    "3945": " pretending",
    "3946": " pistol",
    "3947": " dishwasher",
    "3948": " rever",
    "3949": " organize",
    "3950": " pee",
    "3951": " vendor",
    "3952": " knock",
    "3953": " sight",
    "3954": " grill",
    "3955": " temple",
    "3956": " battery",
    "3957": " thinking",
    "3958": " opens",
    "3959": " ow",
    "3960": " realised",
    "3961": " iron",
    "3962": " laser",
    "3963": " sne",
    "3964": " sandbox",
    "3965": " oil",
    "3966": " patch",
    "3967": " hours",
    "3968": " rise",
    "3969": " whip",
    "3970": "'d",
    "3971": "ctory",
    "3972": " Give",
    "3973": " anchor",
    "3974": " trash",
    "3975": "ense",
    "3976": " short",
    "3977": "ney",
    "3978": " Betty",
    "3979": " rhin",
    "3980": " factory",
    "3981": "seum",
    "3982": " may",
    "3983": " ward",
    "3984": "ately",
    "3985": " cardboard",
    "3986": "ugged",
    "3987": " lotion",
    "3988": "Al",
    "3989": " message",
    "3990": " valu",
    "3991": " wardrobe",
    "3992": " cell",
    "3993": " museum",
    "3994": "apers",
    "3995": " ur",
    "3996": "ination",
    "3997": " hanging",
    "3998": "ucet",
    "3999": "ailable",
    "4000": " Sunny",
    "4001": " Zoom",
    "4002": " hive",
    "4003": "eer",
    "4004": " towers",
    "4005": "keeper",
    "4006": " blackboard",
    "4007": " mem",
    "4008": " excitement",
    "4009": " coffee",
    "4010": " pilot",
    "4011": "ready",
    "4012": "Fluffy",
    "4013": " napkin",
    "4014": " penguin",
    "4015": "ron",
    "4016": " check",
    "4017": " reward",
    "4018": "loo",
    "4019": " quit",
    "4020": " Pippin",
    "4021": " cane",
    "4022": " picking",
    "4023": "place",
    "4024": " Snow",
    "4025": "azor",
    "4026": " faucet",
    "4027": " ig",
    "4028": " passport",
    "4029": " Rob",
    "4030": " stumbled",
    "4031": " dreamed",
    "4032": " igloo",
    "4033": " Bessie",
    "4034": "aroo",
    "4035": "angaroo",
    "4036": " freez",
    "4037": " juicy",
    "4038": " allowed",
    "4039": "play",
    "4040": " holds",
    "4041": " already",
    "4042": " available",
    "4043": " sett",
    "4044": " bathe",
    "4045": " tornado",
    "4046": "imney",
    "4047": " fingers",
    "4048": "htray",
    "4049": " hanger",
    "4050": " newsp",
    "4051": " size",
    "4052": " laund",
    "4053": " lend",
    "4054": " chimney",
    "4055": " laundry",
    "4056": " oak",
    "4057": " fisher",
    "4058": " kangaroo",
    "4059": " men",
    "4060": " Everywhere",
    "4061": " telling",
    "4062": "Em",
    "4063": " novel",
    "4064": "body",
    "4065": " mummy",
    "4066": " pal",
    "4067": " mule",
    "4068": " cherries",
    "4069": " notice",
    "4070": " practice",
    "4071": " spilled",
    "4072": " reind",
    "4073": " complete",
    "4074": " enjoying",
    "4075": " microscope",
    "4076": "arian",
    "4077": "ampoo",
    "4078": " gain",
    "4079": " sub",
    "4080": " fireplace",
    "4081": " imagine",
    "4082": "anda",
    "4083": " display",
    "4084": "ocer",
    "4085": " Zip",
    "4086": " fastest",
    "4087": " magazine",
    "4088": " hurry",
    "4089": " cabinet",
    "4090": " shrink",
    "4091": " ashtray",
    "4092": "Wait",
    "4093": " cows",
    "4094": " Spike",
    "4095": "Joe",
    "4096": "gen",
    "4097": " palace",
    "4098": " improve",
    "4099": "aches",
    "4100": " rake",
    "4101": " reindeer",
    "4102": " falling",
    "4103": "oceros",
    "4104": " skirt",
    "4105": "ured",
    "4106": " discovered",
    "4107": " stared",
    "4108": " roared",
    "4109": "aid",
    "4110": " silver",
    "4111": " tub",
    "4112": " trail",
    "4113": "Is",
    "4114": " miner",
    "4115": "come",
    "4116": " bill",
    "4117": "iction",
    "4118": " fog",
    "4119": " ax",
    "4120": "stairs",
    "4121": "ilet",
    "4122": " hut",
    "4123": " happier",
    "4124": " taller",
    "4125": "ictionary",
    "4126": " oats",
    "4127": " fisherman",
    "4128": " object",
    "4129": " por",
    "4130": "vision",
    "4131": " valuable",
    "4132": " shampoo",
    "4133": " holes",
    "4134": " offered",
    "4135": " boots",
    "4136": " rhinoceros",
    "4137": " names",
    "4138": " toilet",
    "4139": " climbing",
    "4140": " blin",
    "4141": "vice",
    "4142": "Ow",
    "4143": " stretched",
    "4144": "iest",
    "4145": " zipper",
    "4146": " listening",
    "4147": " sym",
    "4148": " bathrobe",
    "4149": "alend",
    "4150": " jewelry",
    "4151": " Here",
    "4152": " jokes",
    "4153": " television",
    "4154": " prov",
    "4155": " calend",
    "4156": " stops",
    "4157": " axe",
    "4158": " jumps",
    "4159": " fuel",
    "4160": "cu",
    "4161": " sparkly",
    "4162": " perfume",
    "4163": " Susie",
    "4164": " bury",
    "4165": "bol",
    "4166": "Mummy",
    "4167": "lu",
    "4168": " pressed",
    "4169": " Kim",
    "4170": "reek",
    "4171": " rece",
    "4172": "fa",
    "4173": " Toby",
    "4174": " neat",
    "4175": " creek",
    "4176": " popped",
    "4177": " opera",
    "4178": " calendar",
    "4179": " snap",
    "4180": " gasped",
    "4181": " attach",
    "4182": " symbol",
    "4183": " tuna",
    "4184": " Mar",
    "4185": " papers",
    "4186": "Mr",
    "4187": " unpack",
    "4188": " resist",
    "4189": " dictionary",
    "4190": " subway",
    "4191": " letters",
    "4192": " freezer",
    "4193": " chose",
    "4194": " pinch",
    "4195": "zag",
    "4196": " spoke",
    "4197": " anyway",
    "4198": " super",
    "4199": " porch",
    "4200": " helper",
    "4201": "affe",
    "4202": " bikes",
    "4203": " lie",
    "4204": "arry",
    "4205": "iches",
    "4206": " tightly",
    "4207": " comfort",
    "4208": " shaking",
    "4209": " bookcase",
    "4210": " son",
    "4211": " razor",
    "4212": "aurant",
    "4213": " sandwiches",
    "4214": " Are",
    "4215": "igzag",
    "4216": " weigh",
    "4217": " against",
    "4218": " stickers",
    "4219": " restaurant",
    "4220": " newspaper",
    "4221": " blouse",
    "4222": " vehicle",
    "4223": " swinging",
    "4224": " ped",
    "4225": " disag",
    "4226": " nature",
    "4227": " squirrels",
    "4228": "ival",
    "4229": " belongs",
    "4230": " swamp",
    "4231": " butterflies",
    "4232": " gym",
    "4233": "del",
    "4234": " inclu",
    "4235": " growing",
    "4236": " buckle",
    "4237": "omed",
    "4238": " stirred",
    "4239": " mustache",
    "4240": " billboard",
    "4241": "xy",
    "4242": " beep",
    "4243": "te",
    "4244": " alarm",
    "4245": " lightning",
    "4246": " lip",
    "4247": " fest",
    "4248": " hung",
    "4249": "utor",
    "4250": " distance",
    "4251": "ogn",
    "4252": " cards",
    "4253": " obser",
    "4254": " agree",
    "4255": "Little",
    "4256": " ext",
    "4257": " tease",
    "4258": " recogn",
    "4259": " rubber",
    "4260": "ik",
    "4261": " hate",
    "4262": "fast",
    "4263": "ef",
    "4264": "Ouch",
    "4265": " doesn",
    "4266": " musician",
    "4267": " advice",
    "4268": " beef",
    "4269": " serve",
    "4270": "aspoon",
    "4271": " sweetie",
    "4272": " model",
    "4273": "lter",
    "4274": " crib",
    "4275": " blueberries",
    "4276": " sofa",
    "4277": " circles",
    "4278": " breakfast",
    "4279": " tutor",
    "4280": "asis",
    "4281": " bookshe",
    "4282": " giraffe",
    "4283": "stri",
    "4284": " festival",
    "4285": " separate",
    "4286": " shelter",
    "4287": " gas",
    "4288": " airport",
    "4289": " olive",
    "4290": " rail",
    "4291": " bookshelf",
    "4292": " frogs",
    "4293": " teaspoon",
    "4294": " reverse",
    "4295": " junk",
    "4296": " riding",
    "4297": " pleased",
    "4298": " drain",
    "4299": " Mrs",
    "4300": " wipe",
    "4301": " oasis",
    "4302": " soil",
    "4303": " ahead",
    "4304": " rescue",
    "4305": " leaving",
    "4306": "ummer",
    "4307": " painter",
    "4308": " squeeze",
    "4309": " chance",
    "4310": " poked",
    "4311": " knob",
    "4312": " Teddy",
    "4313": " peeked",
    "4314": " lumber",
    "4315": " trains",
    "4316": " extra",
    "4317": " slipp",
    "4318": " quiz",
    "4319": " refused",
    "4320": "res",
    "4321": "rmomet",
    "4322": " page",
    "4323": " rules",
    "4324": " happens",
    "4325": " sounded",
    "4326": " ins",
    "4327": " point",
    "4328": " winter",
    "4329": " dancer",
    "4330": " Grandpa",
    "4331": " birdc",
    "4332": " disappear",
    "4333": "rmometer",
    "4334": " Dolly",
    "4335": " weather",
    "4336": " waste",
    "4337": " lic",
    "4338": " birdcage",
    "4339": " theater",
    "4340": " reef",
    "4341": " carrying",
    "4342": "Daisy",
    "4343": " invite",
    "4344": "iform",
    "4345": " goal",
    "4346": " ostri",
    "4347": " uniform",
    "4348": " swung",
    "4349": " trade",
    "4350": " cliff",
    "4351": "ience",
    "4352": " lawn",
    "4353": "ola",
    "4354": " leaned",
    "4355": " Pandy",
    "4356": "angu",
    "4357": " accept",
    "4358": " admire",
    "4359": " fort",
    "4360": " accidentally",
    "4361": " pastel",
    "4362": "bbles",
    "4363": " stom",
    "4364": " langu",
    "4365": " twir",
    "4366": " suff",
    "4367": " panda",
    "4368": "riger",
    "4369": " bet",
    "4370": "rigerator",
    "4371": " peek",
    "4372": "render",
    "4373": " blinked",
    "4374": " starts",
    "4375": "na",
    "4376": " refrigerator",
    "4377": " anywhere",
    "4378": "!\".",
    "4379": " imagined",
    "4380": " dreaming",
    "4381": " remove",
    "4382": "night",
    "4383": " shower",
    "4384": " Lee",
    "4385": " Co",
    "4386": " classroom",
    "4387": " ceiling",
    "4388": " caring",
    "4389": "ium",
    "4390": " grand",
    "4391": " missing",
    "4392": "aked",
    "4393": " license",
    "4394": " stable",
    "4395": " thermometer",
    "4396": " monkeys",
    "4397": "astic",
    "4398": " warned",
    "4399": " summer",
    "4400": " Where",
    "4401": " above",
    "4402": " brick",
    "4403": "ected",
    "4404": " cudd",
    "4405": " problems",
    "4406": "amber",
    "4407": " chasing",
    "4408": " label",
    "4409": " apron",
    "4410": " sent",
    "4411": "urnit",
    "4412": "urniture",
    "4413": " lawy",
    "4414": " lid",
    "4415": "uggage",
    "4416": "med",
    "4417": " respectful",
    "4418": " furniture",
    "4419": " frowned",
    "4420": " zoomed",
    "4421": " pages",
    "4422": " prevent",
    "4423": " bent",
    "4424": " luggage",
    "4425": " mistakes",
    "4426": " sunset",
    "4427": " ostrich",
    "4428": "ison",
    "4429": " suggested",
    "4430": " windows",
    "4431": "ations",
    "4432": " jail",
    "4433": "low",
    "4434": " wine",
    "4435": " ribbon",
    "4436": " older",
    "4437": " shouts",
    "4438": " grape",
    "4439": " Cl",
    "4440": " wigg",
    "4441": "ucture",
    "4442": " structure",
    "4443": " spoil",
    "4444": "eor",
    "4445": " fixing",
    "4446": " chamber",
    "4447": " lions",
    "4448": " delay",
    "4449": " finds",
    "4450": " handed",
    "4451": " searching",
    "4452": " unite",
    "4453": "Did",
    "4454": " fought",
    "4455": " lawyer",
    "4456": " brightly",
    "4457": " pair",
    "4458": " meeting",
    "4459": " choice",
    "4460": " surprises",
    "4461": " Ellie",
    "4462": " art",
    "4463": " Un",
    "4464": "Ch",
    "4465": " favour",
    "4466": "eterin",
    "4467": "eterinarian",
    "4468": "adium",
    "4469": " stadium",
    "4470": " proudly",
    "4471": "iki",
    "4472": " veterinarian",
    "4473": "vet",
    "4474": "rod",
    "4475": " chairs",
    "4476": " slip",
    "4477": " Spe",
    "4478": " sadly",
    "4479": " Bow",
    "4480": " incre",
    "4481": " Carl",
    "4482": " puddles",
    "4483": " berry",
    "4484": " introd",
    "4485": " ranch",
    "4486": "veal",
    "4487": " Boun",
    "4488": " argue",
    "4489": " V",
    "4490": " admired",
    "4491": " cur",
    "4492": " favourite",
    "4493": "Your",
    "4494": " inf",
    "4495": " excitedly",
    "4496": " rac",
    "4497": " grabs",
    "4498": "mend",
    "4499": " steam",
    "4500": "thank",
    "4501": " human",
    "4502": "eorge",
    "4503": "sity",
    "4504": " Hel",
    "4505": " pushing",
    "4506": " saving",
    "4507": " Red",
    "4508": " reveal",
    "4509": "ommend",
    "4510": "alley",
    "4511": " yield",
    "4512": "olog",
    "4513": " mall",
    "4514": " reminded",
    "4515": " recommend",
    "4516": " leak",
    "4517": " surrender",
    "4518": " harb",
    "4519": " appl",
    "4520": "cuss",
    "4521": "aul",
    "4522": " weap",
    "4523": " regret",
    "4524": " putting",
    "4525": " valley",
    "4526": " mineral",
    "4527": " evening",
    "4528": "elcome",
    "4529": " matches",
    "4530": " forgave",
    "4531": " sneezed",
    "4532": " pup",
    "4533": " aw",
    "4534": " rushed",
    "4535": "ecause",
    "4536": " spade",
    "4537": " apolog",
    "4538": " plates",
    "4539": " discuss",
    "4540": " prepare",
    "4541": " harbor",
    "4542": " ignore",
    "4543": " Big",
    "4544": " country",
    "4545": " language",
    "4546": " Buzzy",
    "4547": " pulls",
    "4548": " plastic",
    "4549": " supply",
    "4550": " float",
    "4551": " sniffed",
    "4552": " Jazz",
    "4553": " replace",
    "4554": " meas",
    "4555": " shovel",
    "4556": " Bill",
    "4557": " raise",
    "4558": " Next",
    "4559": " fre",
    "4560": " cared",
    "4561": " socks",
    "4562": " strip",
    "4563": " doors",
    "4564": " mystery",
    "4565": " lives",
    "4566": " restore",
    "4567": " sticker",
    "4568": " sudden",
    "4569": "ari",
    "4570": " kinds",
    "4571": " slippery",
    "4572": "ero",
    "4573": " Ow",
    "4574": " player",
    "4575": " panic",
    "4576": "ricane",
    "4577": " hoping",
    "4578": "iday",
    "4579": " shone",
    "4580": "lex",
    "4581": "hero",
    "4582": " beg",
    "4583": " Mike",
    "4584": " Binky",
    "4585": " superhero",
    "4586": " delighted",
    "4587": " gro",
    "4588": "Yay",
    "4589": "aud",
    "4590": "chan",
    "4591": " chickens",
    "4592": " shoulder",
    "4593": " rained",
    "4594": " colourful",
    "4595": " breat",
    "4596": " Alice",
    "4597": " claw",
    "4598": " Bubbles",
    "4599": "Yuck",
    "4600": " softly",
    "4601": "rise",
    "4602": " port",
    "4603": "Grandma",
    "4604": " hol",
    "4605": "icer",
    "4606": " holiday",
    "4607": " �",
    "4608": " barks",
    "4609": "ason",
    "4610": " throwing",
    "4611": " planes",
    "4612": "Mary",
    "4613": " bend",
    "4614": " Freddy",
    "4615": " shakes",
    "4616": " infant",
    "4617": " ended",
    "4618": " shivering",
    "4619": " kneel",
    "4620": " sunrise",
    "4621": " pushes",
    "4622": " Olive",
    "4623": " thanks",
    "4624": " fresh",
    "4625": " suffer",
    "4626": " points",
    "4627": "imed",
    "4628": "wards",
    "4629": " Pat",
    "4630": " tip",
    "4631": " Speedy",
    "4632": " freeze",
    "4633": " keeping",
    "4634": " Would",
    "4635": " giggle",
    "4636": " copper",
    "4637": " smells",
    "4638": " dear",
    "4639": " enter",
    "4640": " provide",
    "4641": "cast",
    "4642": "chanic",
    "4643": " dishes",
    "4644": " End",
    "4645": "cond",
    "4646": " unh",
    "4647": "Next",
    "4648": " applaud",
    "4649": " heads",
    "4650": " hurricane",
    "4651": " cherry",
    "4652": " thumb",
    "4653": " menu",
    "4654": " meowed",
    "4655": " mass",
    "4656": " second",
    "4657": " brighter",
    "4658": "ince",
    "4659": " sandcast",
    "4660": " mechanic",
    "4661": " wre",
    "4662": " sprayed",
    "4663": " letting",
    "4664": " event",
    "4665": " weapon",
    "4666": " laught",
    "4667": " x",
    "4668": " laughter",
    "4669": " clapping",
    "4670": " feelings",
    "4671": "Will",
    "4672": "icky",
    "4673": " splashing",
    "4674": "ement",
    "4675": " Or",
    "4676": "acked",
    "4677": " castles",
    "4678": " Fl",
    "4679": "cer",
    "4680": " score",
    "4681": "apping",
    "4682": " universe",
    "4683": " navy",
    "4684": " dem",
    "4685": " sticky",
    "4686": "ophie",
    "4687": " rooms",
    "4688": " row",
    "4689": " flies",
    "4690": "igi",
    "4691": " Dave",
    "4692": " unhappy",
    "4693": " greedy",
    "4694": " dare",
    "4695": " alive",
    "4696": " breaks",
    "4697": " ener",
    "4698": " courage",
    "4699": " invit",
    "4700": "Ready",
    "4701": " repeat",
    "4702": " demand",
    "4703": " trusted",
    "4704": "Lisa",
    "4705": " somewhere",
    "4706": "arlie",
    "4707": " prune",
    "4708": "bles",
    "4709": " wreck",
    "4710": " Y",
    "4711": " skill",
    "4712": " examine",
    "4713": " parts",
    "4714": "year",
    "4715": " eaten",
    "4716": "oe",
    "4717": "All",
    "4718": "erc",
    "4719": "enry",
    "4720": " mention",
    "4721": " raining",
    "4722": " Help",
    "4723": "Buddy",
    "4724": " throws",
    "4725": " jogged",
    "4726": "quest",
    "4727": " starting",
    "4728": " rush",
    "4729": " poison",
    "4730": " pirates",
    "4731": "heart",
    "4732": " vac",
    "4733": " content",
    "4734": "Emma",
    "4735": " Kiki",
    "4736": " sigh",
    "4737": " flapped",
    "4738": " drops",
    "4739": " chirp",
    "4740": " sport",
    "4741": "Qu",
    "4742": " sparkled",
    "4743": " Zoomy",
    "4744": " given",
    "4745": " streng",
    "4746": " steel",
    "4747": "Ann",
    "4748": " bumped",
    "4749": " yawned",
    "4750": " stud",
    "4751": " request",
    "4752": " scold",
    "4753": " myself",
    "4754": " strength",
    "4755": " shrugged",
    "4756": "Mark",
    "4757": " coats",
    "4758": " punish",
    "4759": " equ",
    "4760": " snugg",
    "4761": " university",
    "4762": " paid",
    "4763": " Johnny",
    "4764": " pigs",
    "4765": " scratch",
    "4766": " toe",
    "4767": " exerc",
    "4768": " tracks",
    "4769": " upstairs",
    "4770": " prayed",
    "4771": " crossed",
    "4772": " squeezed",
    "4773": " impressed",
    "4774": " flood",
    "4775": " bouncing",
    "4776": " Ru",
    "4777": "Alice",
    "4778": " rabbits",
    "4779": "ges",
    "4780": " badly",
    "4781": "..",
    "4782": " warn",
    "4783": " leather",
    "4784": " expect",
    "4785": " news",
    "4786": " tide",
    "4787": " Ted",
    "4788": " minute",
    "4789": " bears",
    "4790": " claws",
    "4791": " buzz",
    "4792": " sweetheart",
    "4793": " Sm",
    "4794": "yth",
    "4795": " nation",
    "4796": "Sh",
    "4797": "ythm",
    "4798": " vacation",
    "4799": " hist",
    "4800": " heat",
    "4801": " strawberries",
    "4802": " observe",
    "4803": " explored",
    "4804": " settle",
    "4805": " sandcastle",
    "4806": " yawn",
    "4807": " history",
    "4808": " Lilly",
    "4809": " Lola",
    "4810": "mare",
    "4811": " Mummy",
    "4812": " Sque",
    "4813": "ially",
    "4814": "inking",
    "4815": " believed",
    "4816": " horses",
    "4817": "Daddy",
    "4818": " Hoppy",
    "4819": " checked",
    "4820": " Mandy",
    "4821": " tour",
    "4822": " network",
    "4823": " cheek",
    "4824": " Under",
    "4825": " offer",
    "4826": " easily",
    "4827": " placed",
    "4828": "spec",
    "4829": " spots",
    "4830": " snowball",
    "4831": "ween",
    "4832": "men",
    "4833": " energy",
    "4834": " Bee",
    "4835": " imagination",
    "4836": " blueberry",
    "4837": "otten",
    "4838": " between",
    "4839": "specially",
    "4840": " Gigi",
    "4841": "izes",
    "4842": " daisy",
    "4843": " waving",
    "4844": "reeze",
    "4845": "reat",
    "4846": " vroom",
    "4847": " soak",
    "4848": " safari",
    "4849": " rhythm",
    "4850": " massage",
    "4851": " stomach",
    "4852": " baking",
    "4853": "quake",
    "4854": " nightmare",
    "4855": " insisted",
    "4856": " blowing",
    "4857": " entered",
    "4858": "Before",
    "4859": " stair",
    "4860": " palm",
    "4861": " beauty",
    "4862": " twisted",
    "4863": " bother",
    "4864": " writing",
    "4865": " scoop",
    "4866": " prunes",
    "4867": " brain",
    "4868": " ing",
    "4869": "ipment",
    "4870": " poppy",
    "4871": " hills",
    "4872": "noon",
    "4873": " afternoon",
    "4874": " equipment",
    "4875": " especially",
    "4876": "hest",
    "4877": " sir",
    "4878": " pad",
    "4879": " See",
    "4880": " ingred",
    "4881": " calls",
    "4882": " ingredient",
    "4883": " Fox",
    "4884": " earthquake",
    "4885": " ignored",
    "4886": " Snowy",
    "4887": " burned",
    "4888": " nobody",
    "4889": "mble",
    "4890": " sty",
    "4891": "apa",
    "4892": " sew",
    "4893": " tug",
    "4894": "isty",
    "4895": "xygen",
    "4896": " hearts",
    "4897": " lear",
    "4898": " learnt",
    "4899": " lemonade",
    "4900": " increase",
    "4901": "illie",
    "4902": "Jenny",
    "4903": " gaz",
    "4904": " backpack",
    "4905": " mailman",
    "4906": " whistled",
    "4907": " pedal",
    "4908": " Sk",
    "4909": "Fred",
    "4910": " shopkeeper",
    "4911": "ffic",
    "4912": " permit",
    "4913": " tremble",
    "4914": " yucky",
    "4915": "anges",
    "4916": " moves",
    "4917": " introduce",
    "4918": " lemons",
    "4919": " crash",
    "4920": " beans",
    "4921": " floated",
    "4922": "edn",
    "4923": "ednesday",
    "4924": "ittens",
    "4925": "Welcome",
    "4926": " planned",
    "4927": " strike",
    "4928": " traffic",
    "4929": " include",
    "4930": " slap",
    "4931": " racing",
    "4932": " Lucky",
    "4933": "resses",
    "4934": " wisdom",
    "4935": " pur",
    "4936": " wags",
    "4937": " Finny",
    "4938": "laimed",
    "4939": " George",
    "4940": " luck",
    "4941": " following",
    "4942": " \n",
    "4943": " price",
    "4944": "ecting",
    "4945": " mama",
    "4946": " pitch",
    "4947": " below",
    "4948": " Elly",
    "4949": " Have",
    "4950": "Le",
    "4951": " weight",
    "4952": " exclaimed",
    "4953": "house",
    "4954": " buried",
    "4955": " follows",
    "4956": " comf",
    "4957": " recognize",
    "4958": " ingredients",
    "4959": " furt",
    "4960": "tain",
    "4961": " candles",
    "4962": "Mimi",
    "4963": " marbles",
    "4964": "riage",
    "4965": "unday",
    "4966": "emember",
    "4967": "eration",
    "4968": " Alex",
    "4969": " apart",
    "4970": " Wednesday",
    "4971": " growled",
    "4972": "uct",
    "4973": " Su",
    "4974": "ores",
    "4975": " conf",
    "4976": " teaching",
    "4977": " hopes",
    "4978": " folded",
    "4979": " closely",
    "4980": " Finn",
    "4981": " Who",
    "4982": " heel",
    "4983": " Sunday",
    "4984": " encourage",
    "4985": " Paul",
    "4986": " Owl",
    "4987": " zigzag",
    "4988": " pulling",
    "4989": " digg",
    "4990": " bouncy",
    "4991": " further",
    "4992": " chewed",
    "4993": " digging",
    "4994": " winning",
    "4995": "Woof",
    "4996": "With",
    "4997": " dresses",
    "4998": " image",
    "4999": "rec",
    "5000": "cery",
    "5001": " shouting",
    "5002": " grocery",
    "5003": " twisty",
    "5004": " peanuts",
    "5005": " puzzles",
    "5006": "bbing",
    "5007": " Dog",
    "5008": "look",
    "5009": " scrat",
    "5010": " chores",
    "5011": " whisper",
    "5012": " Is",
    "5013": " spike",
    "5014": " Froggy",
    "5015": " cape",
    "5016": " snail",
    "5017": " acorns",
    "5018": " worms",
    "5019": "hood",
    "5020": " deeper",
    "5021": " urge",
    "5022": "ifi",
    "5023": " exper",
    "5024": " Whenever",
    "5025": " Tilly",
    "5026": " Squeaky",
    "5027": " Grace",
    "5028": " planted",
    "5029": " attention",
    "5030": "ecture",
    "5031": " exercise",
    "5032": " Danny",
    "5033": " cub",
    "5034": " operation",
    "5035": " underground",
    "5036": " hon",
    "5037": " agre",
    "5038": " quite",
    "5039": " creatures",
    "5040": " simp",
    "5041": "Everyone",
    "5042": " struggle",
    "5043": "oral",
    "5044": " Mittens",
    "5045": "ddy",
    "5046": " blood",
    "5047": " lecture",
    "5048": " washing",
    "5049": " hurting",
    "5050": " vanished",
    "5051": " gifts",
    "5052": " dressed",
    "5053": " invitation",
    "5054": " solved",
    "5055": " licks",
    "5056": " snuggled",
    "5057": " Sharing",
    "5058": "ippy",
    "5059": " ble",
    "5060": " marriage",
    "5061": " quietly",
    "5062": "gie",
    "5063": " warning",
    "5064": " jazz",
    "5065": " breathe",
    "5066": "reci",
    "5067": " elephants",
    "5068": " sizes",
    "5069": " dried",
    "5070": " fallen",
    "5071": " landscape",
    "5072": "ories",
    "5073": " sprink",
    "5074": " neighbour",
    "5075": " mice",
    "5076": "uesday",
    "5077": " appreci",
    "5078": " Sophie",
    "5079": " Joey",
    "5080": " –",
    "5081": " eagerly",
    "5082": " sailing",
    "5083": " Coco",
    "5084": " paused",
    "5085": "ips",
    "5086": " counter",
    "5087": " Good",
    "5088": " Bounce",
    "5089": " Penny",
    "5090": " worth",
    "5091": "looking",
    "5092": " Rock",
    "5093": " oxygen",
    "5094": "Because",
    "5095": " release",
    "5096": " shined",
    "5097": "Not",
    "5098": "pted",
    "5099": " reaches",
    "5100": " balan",
    "5101": " Zara",
    "5102": "isses",
    "5103": " oh",
    "5104": " kisses",
    "5105": " style",
    "5106": " bricks",
    "5107": " plays",
    "5108": " glo",
    "5109": " Tuesday",
    "5110": " ideas",
    "5111": "sed",
    "5112": " inst",
    "5113": " wob",
    "5114": " fireworks",
    "5115": "Bella",
    "5116": "iggly",
    "5117": "ucked",
    "5118": " seeing",
    "5119": " flap",
    "5120": "ops",
    "5121": " accepted",
    "5122": "right",
    "5123": " Pip",
    "5124": "Today",
    "5125": " blink",
    "5126": "mm",
    "5127": " Ros",
    "5128": " tremb",
    "5129": "These",
    "5130": " muddy",
    "5131": " memory",
    "5132": " married",
    "5133": " tomatoes",
    "5134": " exit",
    "5135": " Annie",
    "5136": " wagging",
    "5137": " fash",
    "5138": "Remy",
    "5139": " Charlie",
    "5140": " wandered",
    "5141": "unately",
    "5142": "ipping",
    "5143": " gloves",
    "5144": " captain",
    "5145": " pillows",
    "5146": " receive",
    "5147": " resp",
    "5148": " Pinky",
    "5149": "raged",
    "5150": " during",
    "5151": " Everything",
    "5152": "etch",
    "5153": " web",
    "5154": " petals",
    "5155": " watered",
    "5156": " Eventually",
    "5157": " si",
    "5158": "ived",
    "5159": " manage",
    "5160": " pinched",
    "5161": " brings",
    "5162": " vanish",
    "5163": " cakes",
    "5164": " fashion",
    "5165": " Bluey",
    "5166": " printer",
    "5167": " destroyed",
    "5168": " treasures",
    "5169": "nce",
    "5170": " allow",
    "5171": "ups",
    "5172": " hadn",
    "5173": " worse",
    "5174": " Fifi",
    "5175": "Surpr",
    "5176": " vel",
    "5177": " hits",
    "5178": " bur",
    "5179": "xu",
    "5180": " velvet",
    "5181": " appear",
    "5182": " disagree",
    "5183": "do",
    "5184": " catching",
    "5185": " scattered",
    "5186": " Ro",
    "5187": " memories",
    "5188": " sorts",
    "5189": " Papa",
    "5190": " hers",
    "5191": " scolded",
    "5192": " signs",
    "5193": " pears",
    "5194": " oranges",
    "5195": " bones",
    "5196": " rang",
    "5197": " snapped",
    "5198": " sits",
    "5199": " seats",
    "5200": "uxu",
    "5201": " gazed",
    "5202": " raised",
    "5203": "Bl",
    "5204": " Maria",
    "5205": " zipped",
    "5206": " pies",
    "5207": " prints",
    "5208": " shot",
    "5209": " sliding",
    "5210": " God",
    "5211": " fro",
    "5212": " easier",
    "5213": "ssible",
    "5214": " skills",
    "5215": " climbs",
    "5216": " twirled",
    "5217": "ccer",
    "5218": " blankets",
    "5219": " forgotten",
    "5220": " baked",
    "5221": "ester",
    "5222": "Yum",
    "5223": "esterday",
    "5224": " difference",
    "5225": "orted",
    "5226": " luxu",
    "5227": " golden",
    "5228": "ising",
    "5229": " kitty",
    "5230": " Tw",
    "5231": " cutting",
    "5232": " season",
    "5233": "aggie",
    "5234": " nowhere",
    "5235": " crow",
    "5236": "ah",
    "5237": " soccer",
    "5238": " dared",
    "5239": " bites",
    "5240": " Henry",
    "5241": " Harry",
    "5242": "anny",
    "5243": " lung",
    "5244": " celebrated",
    "5245": "choo",
    "5246": "chie",
    "5247": " straight",
    "5248": " unlocked",
    "5249": "sters",
    "5250": " sorting",
    "5251": " collected",
    "5252": " bleed",
    "5253": "aped",
    "5254": "ding",
    "5255": " welcomed",
    "5256": " visited",
    "5257": " spoons",
    "5258": " ours",
    "5259": " stitch",
    "5260": " jogging",
    "5261": "Surprise",
    "5262": "medi",
    "5263": " emer",
    "5264": " Spark",
    "5265": "mediately",
    "5266": " isn",
    "5267": " tong",
    "5268": " trave",
    "5269": " winner",
    "5270": "umble",
    "5271": " since",
    "5272": " ruin",
    "5273": " prett",
    "5274": "Ok",
    "5275": "Moral",
    "5276": " Tony",
    "5277": " attached",
    "5278": " weeping",
    "5279": " marching",
    "5280": " luxury",
    "5281": " simple",
    "5282": " Each",
    "5283": " shouldn",
    "5284": " guessed",
    "5285": " zero",
    "5286": " created",
    "5287": " stuffed",
    "5288": " pets",
    "5289": "ction",
    "5290": " waist",
    "5291": " famil",
    "5292": " urged",
    "5293": " bowed",
    "5294": " selling",
    "5295": " floating",
    "5296": "rr",
    "5297": " Smith",
    "5298": " bye",
    "5299": " King",
    "5300": " vict",
    "5301": " kingdom",
    "5302": " olives",
    "5303": " kicking",
    "5304": " Wiggly",
    "5305": " punished",
    "5306": " Liz",
    "5307": " Baby",
    "5308": "sit",
    "5309": " toes",
    "5310": " grant",
    "5311": " muscles",
    "5312": " jewels",
    "5313": " Rosie",
    "5314": " beds",
    "5315": " melted",
    "5316": "Goodbye",
    "5317": " slice",
    "5318": " grin",
    "5319": " understanding",
    "5320": " collection",
    "5321": " tore",
    "5322": " measured",
    "5323": "aker",
    "5324": " cras",
    "5325": "omeday",
    "5326": "iers",
    "5327": " trapped",
    "5328": " lined",
    "5329": "'ve",
    "5330": " acted",
    "5331": "fortunately",
    "5332": " encouraged",
    "5333": "va",
    "5334": " Sandy",
    "5335": " received",
    "5336": " waffles",
    "5337": " Before",
    "5338": " Wally",
    "5339": " west",
    "5340": " meow",
    "5341": "ents",
    "5342": " patterns",
    "5343": "rin",
    "5344": "ino",
    "5345": " brus",
    "5346": "eath",
    "5347": " mouths",
    "5348": "kins",
    "5349": " bang",
    "5350": "ring",
    "5351": " Kate",
    "5352": "Meow",
    "5353": " peaches",
    "5354": " breeze",
    "5355": "aded",
    "5356": "une",
    "5357": " printed",
    "5358": " soldiers",
    "5359": " someday",
    "5360": " potatoes",
    "5361": " pupil",
    "5362": "umes",
    "5363": " Millie",
    "5364": " drinks",
    "5365": " shed",
    "5366": " experience",
    "5367": " Tuna",
    "5368": " presents",
    "5369": " firef",
    "5370": " Ruby",
    "5371": " surround",
    "5372": " none",
    "5373": "osed",
    "5374": " voices",
    "5375": "eep",
    "5376": " drinking",
    "5377": " Uncle",
    "5378": "ishing",
    "5379": " relaxed",
    "5380": " victory",
    "5381": "cus",
    "5382": " paints",
    "5383": " breaking",
    "5384": "eve",
    "5385": " hurried",
    "5386": "ission",
    "5387": " twink",
    "5388": " tongue",
    "5389": " costumes",
    "5390": " flat",
    "5391": " mentioned",
    "5392": " begged",
    "5393": " teasing",
    "5394": " whistling",
    "5395": " fetch",
    "5396": " permission",
    "5397": " sip",
    "5398": " disagreed",
    "5399": " pearl",
    "5400": "akes",
    "5401": " stro",
    "5402": "vest",
    "5403": " These",
    "5404": " esc",
    "5405": " appro",
    "5406": " skipping",
    "5407": " fishing",
    "5408": " May",
    "5409": "Leo",
    "5410": " highest",
    "5411": " pra",
    "5412": " watches",
    "5413": " sorted",
    "5414": " ringing",
    "5415": "ship",
    "5416": " tonight",
    "5417": " Bo",
    "5418": " opin",
    "5419": " lets",
    "5420": "icing",
    "5421": " Qu",
    "5422": " perfectly",
    "5423": " shadows",
    "5424": " immediately",
    "5425": " herbs",
    "5426": " warmth",
    "5427": " spit",
    "5428": " remained",
    "5429": "ther",
    "5430": " Its",
    "5431": "walk",
    "5432": "Bobby",
    "5433": "irring",
    "5434": "Jen",
    "5435": " sneak",
    "5436": " six",
    "5437": " lips",
    "5438": " kneeled",
    "5439": "Blue",
    "5440": " contest",
    "5441": " Che",
    "5442": "utter",
    "5443": " cartoons",
    "5444": " sidewalk",
    "5445": " colours",
    "5446": " stamps",
    "5447": " ago",
    "5448": "Ha",
    "5449": " Toto",
    "5450": " Boo",
    "5451": " Follow",
    "5452": " east",
    "5453": " headed",
    "5454": "oved",
    "5455": "\",",
    "5456": " strang",
    "5457": " ladyb",
    "5458": " fed",
    "5459": " supposed",
    "5460": " roots",
    "5461": " lick",
    "5462": " crunch",
    "5463": " mixing",
    "5464": " works",
    "5465": " decorations",
    "5466": " melting",
    "5467": " known",
    "5468": " emergen",
    "5469": "Mandy",
    "5470": " rested",
    "5471": " Ab",
    "5472": " lines",
    "5473": " Suzy",
    "5474": " lily",
    "5475": " Jul",
    "5476": " instr",
    "5477": " laid",
    "5478": " Gr",
    "5479": " succeeded",
    "5480": " cones",
    "5481": " wiggle",
    "5482": "ety",
    "5483": "sing",
    "5484": " shock",
    "5485": " setting",
    "5486": " Slow",
    "5487": " studied",
    "5488": " strangers",
    "5489": " Rocky",
    "5490": "Really",
    "5491": " twigs",
    "5492": " brid",
    "5493": " theirs",
    "5494": " Dr",
    "5495": " girls",
    "5496": "boo",
    "5497": "!\",",
    "5498": " screams",
    "5499": " lands",
    "5500": " ordered",
    "5501": " stirring",
    "5502": " moments",
    "5503": " fields",
    "5504": " alright",
    "5505": " stealing",
    "5506": "ded",
    "5507": "Andy",
    "5508": " rul",
    "5509": " bravely",
    "5510": "avid",
    "5511": " Both",
    "5512": " mister",
    "5513": "!'",
    "5514": " invest",
    "5515": " scratched",
    "5516": " playtime",
    "5517": " ripped",
    "5518": " investig",
    "5519": " tucked",
    "5520": " resting",
    "5521": " burning",
    "5522": "ishes",
    "5523": " Clara",
    "5524": " Chicky",
    "5525": " bridges",
    "5526": " officer",
    "5527": "please",
    "5528": "Sammy",
    "5529": "Bird",
    "5530": "abies",
    "5531": " settled",
    "5532": " matched",
    "5533": " achie",
    "5534": " tex",
    "5535": " texture",
    "5536": "Happy",
    "5537": " waits",
    "5538": " turning",
    "5539": " Sky",
    "5540": "Peter",
    "5541": "ored",
    "5542": " trembling",
    "5543": "isten",
    "5544": " nails",
    "5545": "atie",
    "5546": " muffins",
    "5547": " Someone",
    "5548": "ids",
    "5549": " escaped",
    "5550": " James",
    "5551": " piles",
    "5552": " investigate",
    "5553": "osity",
    "5554": " broom",
    "5555": " ladybug",
    "5556": " sore",
    "5557": " Pepper",
    "5558": " appreciate",
    "5559": " admir",
    "5560": " threat",
    "5561": " babies",
    "5562": " silence",
    "5563": " sisters",
    "5564": " emergency",
    "5565": " area",
    "5566": "ides",
    "5567": " dads",
    "5568": " answers",
    "5569": " pupp",
    "5570": " keys",
    "5571": " chewing",
    "5572": " slapped",
    "5573": " wiz",
    "5574": " importance",
    "5575": "Boo",
    "5576": " served",
    "5577": " Hop",
    "5578": " safety",
    "5579": "izing",
    "5580": "Bu",
    "5581": "Would",
    "5582": " sparkle",
    "5583": " touching",
    "5584": " Later",
    "5585": " soared",
    "5586": "igail",
    "5587": " sings",
    "5588": " hen",
    "5589": "allen",
    "5590": "Ella",
    "5591": "bers",
    "5592": "antly",
    "5593": "Momo",
    "5594": " Dino",
    "5595": " keeps",
    "5596": " amazement",
    "5597": " challen",
    "5598": " twin",
    "5599": " hesit",
    "5600": " revealed",
    "5601": "anna",
    "5602": "achel",
    "5603": " item",
    "5604": " dire",
    "5605": " soaked",
    "5606": "zing",
    "5607": " writ",
    "5608": " foods",
    "5609": " rides",
    "5610": " dinosaurs",
    "5611": " recorded",
    "5612": " tickle",
    "5613": " inch",
    "5614": " Zigzag",
    "5615": " Me",
    "5616": " wizard",
    "5617": " vet",
    "5618": " trips",
    "5619": " glowed",
    "5620": " An",
    "5621": " Frog",
    "5622": "Mmm",
    "5623": " hi",
    "5624": " beamed",
    "5625": " quack",
    "5626": " curled",
    "5627": " hated",
    "5628": " wink",
    "5629": " shopping",
    "5630": " eats",
    "5631": "Eventually",
    "5632": " Bug",
    "5633": " praised",
    "5634": " wooden",
    "5635": " bringing",
    "5636": " mittens",
    "5637": " studying",
    "5638": " guy",
    "5639": " brushes",
    "5640": " spaceship",
    "5641": " gust",
    "5642": " crawling",
    "5643": " Something",
    "5644": "Cat",
    "5645": " ruler",
    "5646": " flav",
    "5647": " downstairs",
    "5648": " shooting",
    "5649": " tastes",
    "5650": " napping",
    "5651": " sprinkles",
    "5652": " marks",
    "5653": " cuddled",
    "5654": " dot",
    "5655": "hello",
    "5656": "plash",
    "5657": " fut",
    "5658": "ales",
    "5659": "aved",
    "5660": " future",
    "5661": " monsters",
    "5662": " collecting",
    "5663": " measuring",
    "5664": " Happy",
    "5665": "'.",
    "5666": " families",
    "5667": " Out",
    "5668": " First",
    "5669": " Mo",
    "5670": " thrill",
    "5671": " oat",
    "5672": "irts",
    "5673": " result",
    "5674": "Jake",
    "5675": " approached",
    "5676": " Rabbit",
    "5677": " crunchy",
    "5678": "act",
    "5679": "Un",
    "5680": " remem",
    "5681": " bleeding",
    "5682": " remembers",
    "5683": " nicer",
    "5684": " beat",
    "5685": " sneaky",
    "5686": " disturbed",
    "5687": " leader",
    "5688": " scaring",
    "5689": "Or",
    "5690": "hind",
    "5691": " peel",
    "5692": " Hope",
    "5693": " firemen",
    "5694": " neighborhood",
    "5695": " Star",
    "5696": " grey",
    "5697": " Not",
    "5698": " motion",
    "5699": " noon",
    "5700": " possible",
    "5701": "Emily",
    "5702": "Somet",
    "5703": " apologized",
    "5704": " weighed",
    "5705": "ues",
    "5706": " Did",
    "5707": " tickets",
    "5708": "Cl",
    "5709": " naps",
    "5710": " loose",
    "5711": " pride",
    "5712": " youth",
    "5713": " swims",
    "5714": "ped",
    "5715": " strings",
    "5716": " recognized",
    "5717": " siren",
    "5718": " poking",
    "5719": "fied",
    "5720": " Ho",
    "5721": "cious",
    "5722": "ha",
    "5723": "elvet",
    "5724": " tricked",
    "5725": " wonders",
    "5726": " gained",
    "5727": " wanting",
    "5728": " crashed",
    "5729": " obe",
    "5730": " seesaw",
    "5731": " worker",
    "5732": "unnies",
    "5733": "ls",
    "5734": "oming",
    "5735": " draws",
    "5736": " scooped",
    "5737": ".'",
    "5738": " zooming",
    "5739": " opinion",
    "5740": " yelling",
    "5741": " prepared",
    "5742": " grinned",
    "5743": " Slowly",
    "5744": " awe",
    "5745": " poems",
    "5746": " doggy",
    "5747": " acting",
    "5748": " Beep",
    "5749": " happiest",
    "5750": " chef",
    "5751": " sneaked",
    "5752": " respons",
    "5753": " eff",
    "5754": " Always",
    "5755": " Lizzy",
    "5756": " owned",
    "5757": " bunnies",
    "5758": " anytime",
    "5759": " struck",
    "5760": " pedals",
    "5761": "oys",
    "5762": " knelt",
    "5763": "ena",
    "5764": "Ollie",
    "5765": " secrets",
    "5766": " pause",
    "5767": " decorated",
    "5768": " horns",
    "5769": " agreement",
    "5770": " Squ",
    "5771": "ided",
    "5772": " frost",
    "5773": " tallest",
    "5774": " obey",
    "5775": "Remember",
    "5776": "riends",
    "5777": "ogo",
    "5778": " Stop",
    "5779": "Have",
    "5780": " decides",
    "5781": " Once",
    "5782": " behaved",
    "5783": " tugged",
    "5784": " sides",
    "5785": " woof",
    "5786": " slim",
    "5787": "zen",
    "5788": " goodnight",
    "5789": " keeper",
    "5790": " sparkling",
    "5791": " chirped",
    "5792": " precious",
    "5793": "mother",
    "5794": "lier",
    "5795": "ien",
    "5796": "Tr",
    "5797": " repeated",
    "5798": " claps",
    "5799": "indy",
    "5800": "affes",
    "5801": " snowballs",
    "5802": " contain",
    "5803": "ud",
    "5804": "rs",
    "5805": " Ray",
    "5806": " ourselves",
    "5807": "allow",
    "5808": " giraffes",
    "5809": " balancing",
    "5810": " kindly",
    "5811": " spending",
    "5812": " writes",
    "5813": "ays",
    "5814": "ppers",
    "5815": " Like",
    "5816": "omas",
    "5817": " prop",
    "5818": " hissed",
    "5819": "First",
    "5820": " frozen",
    "5821": " frosting",
    "5822": " effort",
    "5823": " buzzing",
    "5824": " struggled",
    "5825": "oh",
    "5826": " Steve",
    "5827": " admiring",
    "5828": " rele",
    "5829": "iggy",
    "5830": " sweeties",
    "5831": " Velvet",
    "5832": " slimy",
    "5833": " brushed",
    "5834": " bloomed",
    "5835": "Susie",
    "5836": " Am",
    "5837": " polished",
    "5838": " Zoe",
    "5839": "arth",
    "5840": "anted",
    "5841": " comfy",
    "5842": " boo",
    "5843": " staying",
    "5844": " rubbing",
    "5845": "Ducky",
    "5846": " rocking",
    "5847": " pockets",
    "5848": " thrilled",
    "5849": " beside",
    "5850": " comple",
    "5851": " Aunt",
    "5852": " Maggie",
    "5853": "Ah",
    "5854": " eight",
    "5855": "urry",
    "5856": "isdom",
    "5857": " machines",
    "5858": " earlier",
    "5859": " yesterday",
    "5860": " seems",
    "5861": " rust",
    "5862": " Keep",
    "5863": "Sp",
    "5864": " traveled",
    "5865": " folding",
    "5866": " boom",
    "5867": " cracked",
    "5868": "ities",
    "5869": " hugging",
    "5870": " radishes",
    "5871": " Stitch",
    "5872": " opening",
    "5873": " loving",
    "5874": " circus",
    "5875": " surrounded",
    "5876": " curiosity",
    "5877": " Rachel",
    "5878": " spraying",
    "5879": " demanded",
    "5880": " paintings",
    "5881": "amie",
    "5882": " Green",
    "5883": " removed",
    "5884": " gaze",
    "5885": " honk",
    "5886": " pebbles",
    "5887": " zookeeper",
    "5888": " hardly",
    "5889": " catches",
    "5890": "edding",
    "5891": " sting",
    "5892": " stripes",
    "5893": " powers",
    "5894": " loaded",
    "5895": " Pippa",
    "5896": "Sometimes",
    "5897": " splashes",
    "5898": " pots",
    "5899": " petted",
    "5900": " matching",
    "5901": " David",
    "5902": "Thanks",
    "5903": " toss",
    "5904": " stare",
    "5905": " belly",
    "5906": "Yummy",
    "5907": "ibb",
    "5908": " whatever",
    "5909": " apologize",
    "5910": " rocked",
    "5911": " comforted",
    "5912": " Bree",
    "5913": " decision",
    "5914": " ribbons",
    "5915": " Joy",
    "5916": " Birdie",
    "5917": "ern",
    "5918": " struggling",
    "5919": " expected",
    "5920": " deser",
    "5921": " steep",
    "5922": "wh",
    "5923": " protected",
    "5924": " neighbors",
    "5925": " smiley",
    "5926": " chases",
    "5927": "During",
    "5928": " granted",
    "5929": " crumb",
    "5930": " Mat",
    "5931": " purred",
    "5932": " diving",
    "5933": " sadness",
    "5934": "Whiskers",
    "5935": " organizing",
    "5936": "lowers",
    "5937": " eagle",
    "5938": " heroes",
    "5939": " dipped",
    "5940": " sunlight",
    "5941": " lied",
    "5942": " pastels",
    "5943": " Frank",
    "5944": "Ex",
    "5945": " safer",
    "5946": " roads",
    "5947": " scru",
    "5948": " argued",
    "5949": " Milly",
    "5950": " goals",
    "5951": " Water",
    "5952": " discovery",
    "5953": " Abigail",
    "5954": " villag",
    "5955": " peered",
    "5956": "Ro",
    "5957": " Bouncy",
    "5958": "use",
    "5959": "ana",
    "5960": "loe",
    "5961": " tim",
    "5962": " dragons",
    "5963": " buildings",
    "5964": " buckets",
    "5965": " parties",
    "5966": " beard",
    "5967": " wedding",
    "5968": "Rex",
    "5969": " flutter",
    "5970": " planets",
    "5971": " ann",
    "5972": " Robby",
    "5973": " polishing",
    "5974": " fasc",
    "5975": "ira",
    "5976": " released",
    "5977": " Chr",
    "5978": " crabs",
    "5979": " Gogo",
    "5980": " tails",
    "5981": " Watch",
    "5982": " sausages",
    "5983": " Ju",
    "5984": " argu",
    "5985": " contro",
    "5986": " bottles",
    "5987": " wiggled",
    "5988": " teased",
    "5989": "uke",
    "5990": " arguing",
    "5991": " sled",
    "5992": " dragged",
    "5993": " padd",
    "5994": " Car",
    "5995": " roaring",
    "5996": " clearing",
    "5997": " shirts",
    "5998": " movies",
    "5999": " gathering",
    "6000": " airpl",
    "6001": " wid",
    "6002": "joyed",
    "6003": " teaches",
    "6004": " spiders",
    "6005": " limes",
    "6006": " Remember",
    "6007": " Dare",
    "6008": " overjoyed",
    "6009": " actually",
    "6010": " sighs",
    "6011": " continue",
    "6012": " cuddle",
    "6013": " soaring",
    "6014": " smallest",
    "6015": " Jess",
    "6016": " drives",
    "6017": " sparkles",
    "6018": " rip",
    "6019": " situ",
    "6020": " cubes",
    "6021": " refres",
    "6022": " talent",
    "6023": " challenge",
    "6024": " Olly",
    "6025": " grandmother",
    "6026": " Splash",
    "6027": " pouring",
    "6028": "umm",
    "6029": " pretends",
    "6030": " fascin",
    "6031": " cuts",
    "6032": " quarreling",
    "6033": " peppers",
    "6034": " bank",
    "6035": " shivered",
    "6036": " mane",
    "6037": " dusty",
    "6038": "ley",
    "6039": " wondering",
    "6040": " villagers",
    "6041": " stretching",
    "6042": "njoy",
    "6043": "ib",
    "6044": " weeks",
    "6045": " wherever",
    "6046": " darker",
    "6047": "jam",
    "6048": "Tiny",
    "6049": "sses",
    "6050": " X",
    "6051": " rings",
    "6052": " onwards",
    "6053": " Katie",
    "6054": " united",
    "6055": "Achoo",
    "6056": " bead",
    "6057": " Everyday",
    "6058": " Being",
    "6059": " prettiest",
    "6060": "Johnny",
    "6061": " caut",
    "6062": " realize",
    "6063": " company",
    "6064": " penguins",
    "6065": "annah",
    "6066": "Luna",
    "6067": "Fr",
    "6068": " Spring",
    "6069": " bedtime",
    "6070": " completed",
    "6071": " Wisdom",
    "6072": " Leave",
    "6073": "”.",
    "6074": " knights",
    "6075": " flags",
    "6076": " Je",
    "6077": " Because",
    "6078": " playroom",
    "6079": " Prin",
    "6080": " actions",
    "6081": " Zero",
    "6082": " learns",
    "6083": " gotten",
    "6084": " patience",
    "6085": "inda",
    "6086": "dam",
    "6087": " shrug",
    "6088": " kites",
    "6089": " responsible",
    "6090": " fears",
    "6091": " destination",
    "6092": " wires",
    "6093": " reply",
    "6094": " wrist",
    "6095": " dam",
    "6096": "aws",
    "6097": " packing",
    "6098": " mountains",
    "6099": " fault",
    "6100": " applauded",
    "6101": " scrubbed",
    "6102": " ma",
    "6103": " crept",
    "6104": " Ava",
    "6105": "Uh",
    "6106": " Earth",
    "6107": " satis",
    "6108": " third",
    "6109": " phot",
    "6110": " pencils",
    "6111": " wins",
    "6112": " sticking",
    "6113": " baker",
    "6114": " visiting",
    "6115": " wound",
    "6116": " uses",
    "6117": " peas",
    "6118": " reminder",
    "6119": " control",
    "6120": "ashed",
    "6121": "Grandpa",
    "6122": " joking",
    "6123": " awake",
    "6124": " instruct",
    "6125": " staring",
    "6126": " healed",
    "6127": " Put",
    "6128": " hitting",
    "6129": " Fish",
    "6130": " screaming",
    "6131": " begin",
    "6132": "Rob",
    "6133": "uckily",
    "6134": " Friends",
    "6135": " Moo",
    "6136": "icorn",
    "6137": " helmets",
    "6138": "enty",
    "6139": " unicorn",
    "6140": "ler",
    "6141": "seek",
    "6142": " towels",
    "6143": "Silly",
    "6144": " Lou",
    "6145": " chips",
    "6146": "ica",
    "6147": " creation",
    "6148": " wasted",
    "6149": "bie",
    "6150": "Mar",
    "6151": " Behind",
    "6152": "laire",
    "6153": " masks",
    "6154": " items",
    "6155": " forgi",
    "6156": " firefight",
    "6157": " outdo",
    "6158": " lollipops",
    "6159": "Watch",
    "6160": " heav",
    "6161": " guns",
    "6162": " died",
    "6163": " Hippy",
    "6164": " seas",
    "6165": " glitter",
    "6166": "uddles",
    "6167": " arrive",
    "6168": " weren",
    "6169": " stole",
    "6170": " scales",
    "6171": " perched",
    "6172": " accom",
    "6173": " logs",
    "6174": " achieve",
    "6175": "die",
    "6176": " practicing",
    "6177": "ining",
    "6178": " whose",
    "6179": "Stay",
    "6180": " pumpkins",
    "6181": " instructions",
    "6182": " swoop",
    "6183": " batteries",
    "6184": " candies",
    "6185": " agrees",
    "6186": " project",
    "6187": " snakes",
    "6188": " chirping",
    "6189": "Benny",
    "6190": " shelves",
    "6191": " protecting",
    "6192": " parked",
    "6193": " exact",
    "6194": " Cra",
    "6195": " patiently",
    "6196": " activ",
    "6197": " videos",
    "6198": " shoulders",
    "6199": " blows",
    "6200": "hee",
    "6201": "Fo",
    "6202": " promises",
    "6203": "go",
    "6204": " dent",
    "6205": "usan",
    "6206": "uest",
    "6207": "ners",
    "6208": "jamas",
    "6209": " examined",
    "6210": " airplane",
    "6211": "Doggy",
    "6212": " roses",
    "6213": " accompl",
    "6214": " tasks",
    "6215": "Dave",
    "6216": " Hoot",
    "6217": "Poppy",
    "6218": " Bop",
    "6219": "Bunny",
    "6220": " beads",
    "6221": " bowls",
    "6222": " crumbs",
    "6223": "zes",
    "6224": " listens",
    "6225": " Love",
    "6226": " Catty",
    "6227": " Brownie",
    "6228": "Pete",
    "6229": " Ol",
    "6230": " dolphins",
    "6231": " cough",
    "6232": " bunch",
    "6233": " guest",
    "6234": "cakes",
    "6235": " requested",
    "6236": " remote",
    "6237": " improved",
    "6238": "anta",
    "6239": " reaching",
    "6240": " brand",
    "6241": " Jan",
    "6242": "ayla",
    "6243": " alien",
    "6244": " Bye",
    "6245": "irm",
    "6246": " copy",
    "6247": " Sun",
    "6248": " cheering",
    "6249": " photos",
    "6250": " Julie",
    "6251": " Chew",
    "6252": "Bad",
    "6253": " Blink",
    "6254": "Time",
    "6255": " cans",
    "6256": " Cuddles",
    "6257": " timer",
    "6258": " By",
    "6259": " replaced",
    "6260": "athy",
    "6261": " workers",
    "6262": " stern",
    "6263": " Enjoy",
    "6264": "aster",
    "6265": " neither",
    "6266": "Mike",
    "6267": " passing",
    "6268": " misses",
    "6269": " curtains",
    "6270": " confl",
    "6271": "Chirpy",
    "6272": " rainbows",
    "6273": " rubs",
    "6274": "George",
    "6275": "uctantly",
    "6276": " rolls",
    "6277": " patted",
    "6278": "ilo",
    "6279": " pajamas",
    "6280": " outdoors",
    "6281": "esome",
    "6282": "dies",
    "6283": " complaining",
    "6284": " Squirrel",
    "6285": "Lola",
    "6286": "Run",
    "6287": " puppet",
    "6288": " Princess",
    "6289": " closes",
    "6290": " beneath",
    "6291": " lap",
    "6292": " drums",
    "6293": " tune",
    "6294": " Beth",
    "6295": " Mouse",
    "6296": " filling",
    "6297": "Miss",
    "6298": "angled",
    "6299": " refuse",
    "6300": " Sorry",
    "6301": " sweat",
    "6302": " faced",
    "6303": "...",
    "6304": " seven",
    "6305": " balanced",
    "6306": " rescued",
    "6307": "neath",
    "6308": "bl",
    "6309": " quacked",
    "6310": " Abby",
    "6311": "Paul",
    "6312": "istle",
    "6313": " awesome",
    "6314": " 1",
    "6315": " mission",
    "6316": " However",
    "6317": " guys",
    "6318": " conflict",
    "6319": " cautious",
    "6320": " vent",
    "6321": " observed",
    "6322": " cause",
    "6323": " introduc",
    "6324": " Thomas",
    "6325": " pastries",
    "6326": "nie",
    "6327": "  ",
    "6328": " Our",
    "6329": " exactly",
    "6330": " doctors",
    "6331": " rule",
    "6332": " becoming",
    "6333": " policeman",
    "6334": " mes",
    "6335": "uly",
    "6336": " rockets",
    "6337": "you",
    "6338": " Yes",
    "6339": " Dot",
    "6340": " fairies",
    "6341": "lay",
    "6342": " pout",
    "6343": "An",
    "6344": " insist",
    "6345": " blooming",
    "6346": " tractor",
    "6347": " farther",
    "6348": " Sad",
    "6349": "avi",
    "6350": "Oops",
    "6351": "Great",
    "6352": " remembering",
    "6353": " included",
    "6354": " curly",
    "6355": "Zoom",
    "6356": "Fine",
    "6357": " teamwork",
    "6358": "zie",
    "6359": " fascinated",
    "6360": " wobbled",
    "6361": " slam",
    "6362": " truly",
    "6363": " helpers",
    "6364": " sights",
    "6365": " paddle",
    "6366": " stumble",
    "6367": " firm",
    "6368": "Henry",
    "6369": " Jilly",
    "6370": "acob",
    "6371": " caused",
    "6372": " prayer",
    "6373": " spong",
    "6374": " recording",
    "6375": "kelly",
    "6376": "ais",
    "6377": " traded",
    "6378": " starfish",
    "6379": " supplies",
    "6380": " thro",
    "6381": " pointy",
    "6382": " situation",
    "6383": " inviting",
    "6384": "eah",
    "6385": "gers",
    "6386": " neighbourhood",
    "6387": " everyday",
    "6388": " ornaments",
    "6389": " Ally",
    "6390": "inkle",
    "6391": " valued",
    "6392": " adding",
    "6393": "Some",
    "6394": " reluctantly",
    "6395": " dots",
    "6396": " stays",
    "6397": " tables",
    "6398": " prettier",
    "6399": " bare",
    "6400": " desert",
    "6401": " snowmen",
    "6402": " steady",
    "6403": " minerals",
    "6404": "araway",
    "6405": " thorn",
    "6406": "ody",
    "6407": " ast",
    "6408": " glasses",
    "6409": " faraway",
    "6410": " Get",
    "6411": " Foxy",
    "6412": " swooped",
    "6413": " Welcome",
    "6414": " Two",
    "6415": " Sure",
    "6416": " unf",
    "6417": " forks",
    "6418": " usually",
    "6419": " usual",
    "6420": "Polly",
    "6421": " dar",
    "6422": " Jamie",
    "6423": " winked",
    "6424": " sneezing",
    "6425": " solut",
    "6426": " loading",
    "6427": " sponge",
    "6428": " Quick",
    "6429": " insects",
    "6430": " pans",
    "6431": "Dog",
    "6432": " sobbed",
    "6433": " Santa",
    "6434": "James",
    "6435": " growling",
    "6436": "sm",
    "6437": "arter",
    "6438": " throat",
    "6439": " Chloe",
    "6440": " noses",
    "6441": " Josh",
    "6442": " Dizzy",
    "6443": " scarves",
    "6444": " confident",
    "6445": " yourselves",
    "6446": " Want",
    "6447": "agull",
    "6448": " homework",
    "6449": " superheroes",
    "6450": " Stay",
    "6451": "Joey",
    "6452": " smarter",
    "6453": " windy",
    "6454": " librarian",
    "6455": "Tina",
    "6456": " Kids",
    "6457": " gems",
    "6458": "Days",
    "6459": "ora",
    "6460": " underneath",
    "6461": " kicks",
    "6462": " knowled",
    "6463": " itchy",
    "6464": " knowledge",
    "6465": " jackets",
    "6466": " Skelly",
    "6467": " For",
    "6468": " surface",
    "6469": " untie",
    "6470": " comm",
    "6471": " Duck",
    "6472": " princesses",
    "6473": "...\"",
    "6474": "Those",
    "6475": "ido",
    "6476": "eed",
    "6477": "Hold",
    "6478": "Yeah",
    "6479": "coon",
    "6480": " squares",
    "6481": " Henny",
    "6482": " warnings",
    "6483": " giggling",
    "6484": "iar",
    "6485": " reads",
    "6486": "vin",
    "6487": "Our",
    "6488": " choo",
    "6489": "son",
    "6490": " younger",
    "6491": " clowns",
    "6492": " Mix",
    "6493": "Toby",
    "6494": " ropes",
    "6495": " biting",
    "6496": " crowd",
    "6497": " Unfortunately",
    "6498": "pite",
    "6499": "Danny",
    "6500": "True",
    "6501": " seagull",
    "6502": " paddled",
    "6503": " wears",
    "6504": " delivered",
    "6505": " Mon",
    "6506": " twirl",
    "6507": " onions",
    "6508": " buzzed",
    "6509": " complained",
    "6510": " bumpy",
    "6511": " stem",
    "6512": "Ew",
    "6513": " piggy",
    "6514": "Mrs",
    "6515": " Anne",
    "6516": " direction",
    "6517": "ouch",
    "6518": " dived",
    "6519": "Roar",
    "6520": " tangled",
    "6521": " startled",
    "6522": "ults",
    "6523": " leaning",
    "6524": "bbie",
    "6525": " Ant",
    "6526": " Jones",
    "6527": " badge",
    "6528": " Po",
    "6529": "Grace",
    "6530": " unp",
    "6531": " deal",
    "6532": "though",
    "6533": "Annie",
    "6534": " vowed",
    "6535": " napkins",
    "6536": "anes",
    "6537": " tickled",
    "6538": " risk",
    "6539": " covers",
    "6540": " pec",
    "6541": "Shh",
    "6542": " yells",
    "6543": " satisfied",
    "6544": "int",
    "6545": " knocks",
    "6546": " refreshed",
    "6547": "tuce",
    "6548": " Sc",
    "6549": "cuse",
    "6550": " cous",
    "6551": " arrows",
    "6552": "Maggie",
    "6553": " Whistle",
    "6554": "Pe",
    "6555": " wipes",
    "6556": " speaking",
    "6557": " lettuce",
    "6558": " guessing",
    "6559": "Unfortunately",
    "6560": " Quack",
    "6561": " ripe",
    "6562": " Susan",
    "6563": " hides",
    "6564": " choices",
    "6565": " Dodo",
    "6566": " Rover",
    "6567": "Buzz",
    "6568": " signed",
    "6569": " slower",
    "6570": " seeker",
    "6571": " introduced",
    "6572": " singer",
    "6573": " creating",
    "6574": " Matt",
    "6575": " froze",
    "6576": " cent",
    "6577": "uggles",
    "6578": " joked",
    "6579": " squeal",
    "6580": " toaster",
    "6581": " explorers",
    "6582": "fit",
    "6583": " avo",
    "6584": "anging",
    "6585": "Sophie",
    "6586": " praying",
    "6587": " written",
    "6588": " discovering",
    "6589": " provided",
    "6590": " Dara",
    "6591": " refle",
    "6592": " Lion",
    "6593": "Excuse",
    "6594": " mushrooms",
    "6595": " Jeff",
    "6596": " Paws",
    "6597": " paying",
    "6598": " knees",
    "6599": "ences",
    "6600": " hider",
    "6601": " wandering",
    "6602": " Ash",
    "6603": " images",
    "6604": "Charlie",
    "6605": " stung",
    "6606": " Wink",
    "6607": " magnets",
    "6608": " barely",
    "6609": " behaving",
    "6610": " tipto",
    "6611": "?\",",
    "6612": " marked",
    "6613": "brush",
    "6614": "rrr",
    "6615": " restored",
    "6616": " Dee",
    "6617": " leading",
    "6618": "lled",
    "6619": " chuck",
    "6620": "ados",
    "6621": " nine",
    "6622": " greet",
    "6623": "Teddy",
    "6624": " gears",
    "6625": " bravery",
    "6626": " Snuggles",
    "6627": "ky",
    "6628": " competition",
    "6629": "eal",
    "6630": " outfit",
    "6631": "oline",
    "6632": " wishing",
    "6633": " properly",
    "6634": " ventured",
    "6635": "tle",
    "6636": "aa",
    "6637": " muscle",
    "6638": " dances",
    "6639": " chat",
    "6640": " salty",
    "6641": " pens",
    "6642": "amb",
    "6643": " Betsy",
    "6644": " ranger",
    "6645": " Ziggy",
    "6646": " deserve",
    "6647": " however",
    "6648": "sequ",
    "6649": " matters",
    "6650": " darkness",
    "6651": " burst",
    "6652": " Fu",
    "6653": " rainy",
    "6654": " cobwebs",
    "6655": " ruining",
    "6656": " chefs",
    "6657": " consequ",
    "6658": " blocking",
    "6659": " bak",
    "6660": "usted",
    "6661": "itely",
    "6662": "sty",
    "6663": " scur",
    "6664": " vines",
    "6665": " fab",
    "6666": "abel",
    "6667": " fabric",
    "6668": " entire",
    "6669": " basement",
    "6670": " performed",
    "6671": " least",
    "6672": " Buggy",
    "6673": "Sn",
    "6674": " scratches",
    "6675": " heavier",
    "6676": " Claire",
    "6677": " mints",
    "6678": " twirling",
    "6679": " avocados",
    "6680": "However",
    "6681": " Linda",
    "6682": "rink",
    "6683": "fl",
    "6684": " scurried",
    "6685": " losing",
    "6686": " sunflowers",
    "6687": " Jenna",
    "6688": " rainco",
    "6689": " swords",
    "6690": "Tweet",
    "6691": " click",
    "6692": "agic",
    "6693": " Laser",
    "6694": " silent",
    "6695": " jobs",
    "6696": " necklaces",
    "6697": " flames",
    "6698": " Luke",
    "6699": " relief",
    "6700": " Grumpy",
    "6701": " snat",
    "6702": " sewed",
    "6703": " rotting",
    "6704": "len",
    "6705": "Listen",
    "6706": "Follow",
    "6707": " tricky",
    "6708": "Jerry",
    "6709": " lighter",
    "6710": "ophia",
    "6711": " bows",
    "6712": " Skip",
    "6713": " exha",
    "6714": " solution",
    "6715": " consequences",
    "6716": "Alex",
    "6717": " Lena",
    "6718": " tires",
    "6719": " stain",
    "6720": "Beep",
    "6721": " unpacked",
    "6722": "Ab",
    "6723": " partic",
    "6724": "rance",
    "6725": " races",
    "6726": " pins",
    "6727": " bumps",
    "6728": " wraps",
    "6729": "aisies",
    "6730": " wow",
    "6731": " decorating",
    "6732": " backed",
    "6733": "cher",
    "6734": " dentist",
    "6735": " purr",
    "6736": " needles",
    "6737": " cautiously",
    "6738": " lifting",
    "6739": "izzie",
    "6740": " Pr",
    "6741": " accomplish",
    "6742": " triangles",
    "6743": " daisies",
    "6744": "ept",
    "6745": " hesitated",
    "6746": " annoy",
    "6747": " Those",
    "6748": " growls",
    "6749": " crackers",
    "6750": "oke",
    "6751": " stomped",
    "6752": " grabbing",
    "6753": " cott",
    "6754": " figured",
    "6755": " bodies",
    "6756": " mater",
    "6757": " buying",
    "6758": " Tree",
    "6759": " material",
    "6760": " Rolly",
    "6761": " Fido",
    "6762": " Adam",
    "6763": " swans",
    "6764": " ties",
    "6765": " gri",
    "6766": "vers",
    "6767": " grows",
    "6768": " \n ",
    "6769": " sweets",
    "6770": " Goodbye",
    "6771": " owners",
    "6772": " flavor",
    "6773": " cheeks",
    "6774": " Cathy",
    "6775": "Big",
    "6776": " suffering",
    "6777": " Jessie",
    "6778": " El",
    "6779": "vroom",
    "6780": " fact",
    "6781": " groups",
    "6782": "bly",
    "6783": " forehead",
    "6784": " lungs",
    "6785": "Harry",
    "6786": " repa",
    "6787": " interested",
    "6788": " bakery",
    "6789": " Milo",
    "6790": " freed",
    "6791": "Lilly",
    "6792": "itches",
    "6793": " Nothing",
    "6794": " chuckled",
    "6795": "For",
    "6796": " swept",
    "6797": " conn",
    "6798": "?'",
    "6799": " thud",
    "6800": " exhausted",
    "6801": "Tw",
    "6802": " twinkling",
    "6803": " tapped",
    "6804": "Ru",
    "6805": " nect",
    "6806": "rosty",
    "6807": " nectar",
    "6808": "elle",
    "6809": " feast",
    "6810": " darling",
    "6811": "indr",
    "6812": " Mad",
    "6813": " worries",
    "6814": " uns",
    "6815": " tunnels",
    "6816": " fuzzy",
    "6817": " repaired",
    "6818": " reason",
    "6819": " Trust",
    "6820": " Copper",
    "6821": " Ball",
    "6822": " activities",
    "6823": "lets",
    "6824": " pecked",
    "6825": " Hannah",
    "6826": " entrance",
    "6827": " Try",
    "6828": " raindr",
    "6829": " meals",
    "6830": " Listen",
    "6831": " particular",
    "6832": " completely",
    "6833": " mailed",
    "6834": "ctions",
    "6835": " nests",
    "6836": " waiter",
    "6837": " cuddly",
    "6838": " sense",
    "6839": " Nana",
    "6840": " colored",
    "6841": "arky",
    "6842": " leap",
    "6843": "step",
    "6844": "band",
    "6845": " plenty",
    "6846": " peeking",
    "6847": " slammed",
    "6848": " Cara",
    "6849": "no",
    "6850": " players",
    "6851": " month",
    "6852": " budge",
    "6853": " Birthday",
    "6854": " Q",
    "6855": " scra",
    "6856": " forgets",
    "6857": " den",
    "6858": " handful",
    "6859": " Oliver",
    "6860": " mer",
    "6861": "ossible",
    "6862": " genie",
    "6863": " Christ",
    "6864": " stool",
    "6865": "iggie",
    "6866": " talks",
    "6867": " Pup",
    "6868": " Suzie",
    "6869": " passports",
    "6870": " feeding",
    "6871": " films",
    "6872": " baths",
    "6873": " impossible",
    "6874": " determination",
    "6875": "May",
    "6876": " printing",
    "6877": "boat",
    "6878": " designed",
    "6879": " buses",
    "6880": " opp",
    "6881": "ueen",
    "6882": "lephant",
    "6883": " suitcase",
    "6884": " bars",
    "6885": " counts",
    "6886": " stolen",
    "6887": " spreading",
    "6888": " spikes",
    "6889": " Snap",
    "6890": " wiping",
    "6891": " steer",
    "6892": " lamb",
    "6893": " Rain",
    "6894": " honked",
    "6895": "etty",
    "6896": "nies",
    "6897": "Whee",
    "6898": " cowb",
    "6899": " separated",
    "6900": "blings",
    "6901": " siblings",
    "6902": " hops",
    "6903": " chop",
    "6904": " sewing",
    "6905": " fires",
    "6906": " Twinkle",
    "6907": " fever",
    "6908": " twinkle",
    "6909": " ty",
    "6910": " camping",
    "6911": " Mira",
    "6912": " lower",
    "6913": " changing",
    "6914": "yes",
    "6915": "retch",
    "6916": " behavi",
    "6917": " Bloom",
    "6918": "mas",
    "6919": " liqu",
    "6920": " celebration",
    "6921": "but",
    "6922": " squealed",
    "6923": " dollhouse",
    "6924": "Sunny",
    "6925": " backward",
    "6926": " age",
    "6927": " snatched",
    "6928": " cash",
    "6929": "ho",
    "6930": " twice",
    "6931": "lee",
    "6932": " sway",
    "6933": "itched",
    "6934": " celebrating",
    "6935": " Peanut",
    "6936": " shrinking",
    "6937": " ache",
    "6938": "weed",
    "6939": " kings",
    "6940": "rious",
    "6941": " shops",
    "6942": " kittens",
    "6943": "cope",
    "6944": "Rose",
    "6945": " Jessica",
    "6946": " Jacob",
    "6947": " Gina",
    "6948": "aura",
    "6949": " hus",
    "6950": " touches",
    "6951": "airy",
    "6952": " pancakes",
    "6953": " avoid",
    "6954": " spat",
    "6955": " Frosty",
    "6956": "rig",
    "6957": "hog",
    "6958": " Nina",
    "6959": " paths",
    "6960": "ives",
    "6961": "cky",
    "6962": " Hold",
    "6963": " rotten",
    "6964": " calmed",
    "6965": "Sandy",
    "6966": " seaweed",
    "6967": " dropping",
    "6968": " Jon",
    "6969": " Mel",
    "6970": "iles",
    "6971": "Pipp",
    "6972": " twisting",
    "6973": " stroked",
    "6974": " untied",
    "6975": "llen",
    "6976": " playhouse",
    "6977": "ne",
    "6978": "Millie",
    "6979": " students",
    "6980": " puppies",
    "6981": "cl",
    "6982": " Sof",
    "6983": "hi",
    "6984": " screws",
    "6985": " astron",
    "6986": " Re",
    "6987": " somebody",
    "6988": "igning",
    "6989": " liquid",
    "6990": "ammy",
    "6991": " wakes",
    "6992": " squish",
    "6993": " Woof",
    "6994": " bracelets",
    "6995": " astronaut",
    "6996": "immer",
    "6997": "aren",
    "6998": " thrown",
    "6999": " loops",
    "7000": " Other",
    "7001": "Luckily",
    "7002": " wrapping",
    "7003": " plain",
    "7004": " tramp",
    "7005": " planning",
    "7006": " skunk",
    "7007": " aimed",
    "7008": " pennies",
    "7009": " shoo",
    "7010": " lifts",
    "7011": " dancers",
    "7012": " sparks",
    "7013": " firefly",
    "7014": "pen",
    "7015": "Dan",
    "7016": " poster",
    "7017": "yan",
    "7018": "endy",
    "7019": " cust",
    "7020": " Christmas",
    "7021": " rewarded",
    "7022": " objects",
    "7023": " directions",
    "7024": "using",
    "7025": "ingo",
    "7026": " reflection",
    "7027": " husband",
    "7028": "—",
    "7029": "Take",
    "7030": "river",
    "7031": " clues",
    "7032": "uppy",
    "7033": " leads",
    "7034": " increased",
    "7035": " blocked",
    "7036": " rising",
    "7037": " dod",
    "7038": " cousin",
    "7039": " Yesterday",
    "7040": " Without",
    "7041": " forgetting",
    "7042": "rigued",
    "7043": " custom",
    "7044": "Kate",
    "7045": "ude",
    "7046": " trampoline",
    "7047": " beginning",
    "7048": " storekeeper",
    "7049": " pouted",
    "7050": " zebras",
    "7051": " hedgehog",
    "7052": " aff",
    "7053": " ‘",
    "7054": " borrowed",
    "7055": " Rollie",
    "7056": " snowfl",
    "7057": " countryside",
    "7058": "Jump",
    "7059": " mesmer",
    "7060": " Jay",
    "7061": " vehicles",
    "7062": " instrum",
    "7063": " Mic",
    "7064": " Kayla",
    "7065": " Up",
    "7066": " frowning",
    "7067": "ivity",
    "7068": "Pat",
    "7069": "Under",
    "7070": " marker",
    "7071": "yond",
    "7072": " presses",
    "7073": " beyond",
    "7074": " Queen",
    "7075": " damage",
    "7076": " Only",
    "7077": "iece",
    "7078": "ivery",
    "7079": " fart",
    "7080": " Tara",
    "7081": " Biggie",
    "7082": "jo",
    "7083": " health",
    "7084": " whispers",
    "7085": " swimsuit",
    "7086": " slips",
    "7087": " nibb",
    "7088": " Julia",
    "7089": "armer",
    "7090": " warmer",
    "7091": " flapping",
    "7092": " tiptoed",
    "7093": " regretted",
    "7094": "itted",
    "7095": "Zip",
    "7096": " laying",
    "7097": " Robo",
    "7098": "ades",
    "7099": " yelp",
    "7100": " Fire",
    "7101": " rains",
    "7102": " glued",
    "7103": " everybody",
    "7104": " creations",
    "7105": " hearing",
    "7106": " swir",
    "7107": " colder",
    "7108": "iversity",
    "7109": "ael",
    "7110": " shaped",
    "7111": " Elephant",
    "7112": " streets",
    "7113": " fins",
    "7114": " rusty",
    "7115": " cushions",
    "7116": "Out",
    "7117": " san",
    "7118": " farthest",
    "7119": " creativity",
    "7120": " Mikey",
    "7121": "ans",
    "7122": " sale",
    "7123": "Always",
    "7124": "Co",
    "7125": " strongest",
    "7126": "ibbit",
    "7127": " fits",
    "7128": " Sparky",
    "7129": " bells",
    "7130": " dollars",
    "7131": " Larry",
    "7132": " earn",
    "7133": "iam",
    "7134": "angle",
    "7135": " lending",
    "7136": " Moon",
    "7137": " Chirp",
    "7138": "eese",
    "7139": " cashier",
    "7140": "Milly",
    "7141": " including",
    "7142": " sniffs",
    "7143": " sank",
    "7144": " raincoat",
    "7145": " Rich",
    "7146": " trembled",
    "7147": " stopping",
    "7148": " source",
    "7149": "iti",
    "7150": "imon",
    "7151": " Missy",
    "7152": " wobbly",
    "7153": " indeed",
    "7154": "ters",
    "7155": " guests",
    "7156": " single",
    "7157": " recommended",
    "7158": " wee",
    "7159": " spells",
    "7160": " accomplishment",
    "7161": " belts",
    "7162": " surprising",
    "7163": " ends",
    "7164": " hopeful",
    "7165": " seasons",
    "7166": " Take",
    "7167": " Snowman",
    "7168": " Els",
    "7169": "Bear",
    "7170": " plans",
    "7171": "ichael",
    "7172": " encourag",
    "7173": " supported",
    "7174": "stick",
    "7175": "illed",
    "7176": " suffered",
    "7177": " artist",
    "7178": " performance",
    "7179": "eet",
    "7180": "Nina",
    "7181": " slowed",
    "7182": " gross",
    "7183": " flavors",
    "7184": "iding",
    "7185": "ertain",
    "7186": " spins",
    "7187": "cho",
    "7188": "Quack",
    "7189": " labels",
    "7190": " raindrops",
    "7191": " delivery",
    "7192": "uing",
    "7193": "arac",
    "7194": " raccoon",
    "7195": " forgiving",
    "7196": "obody",
    "7197": " Woo",
    "7198": " pours",
    "7199": "the",
    "7200": "ility",
    "7201": " vanilla",
    "7202": " turtles",
    "7203": " stands",
    "7204": "Bill",
    "7205": "uess",
    "7206": " recipe",
    "7207": " beam",
    "7208": " tying",
    "7209": " Sw",
    "7210": " geese",
    "7211": " willing",
    "7212": " robber",
    "7213": " drawn",
    "7214": "Vroom",
    "7215": " wept",
    "7216": " Bones",
    "7217": " charac",
    "7218": " pops",
    "7219": " corners",
    "7220": " Sophia",
    "7221": "elia",
    "7222": " queens",
    "7223": " sailboat",
    "7224": " grip",
    "7225": " die",
    "7226": " drivers",
    "7227": "itude",
    "7228": " moo",
    "7229": " hallway",
    "7230": " imagining",
    "7231": " seconds",
    "7232": " Fuzzy",
    "7233": "Mine",
    "7234": " preparing",
    "7235": " widened",
    "7236": " adult",
    "7237": " Spirit",
    "7238": " grocer",
    "7239": " coop",
    "7240": " talented",
    "7241": " Pam",
    "7242": " Beaky",
    "7243": " Izzy",
    "7244": "ummies",
    "7245": " sailors",
    "7246": "lling",
    "7247": " softer",
    "7248": " aside",
    "7249": " watering",
    "7250": " sending",
    "7251": " knots",
    "7252": " unsure",
    "7253": " tipped",
    "7254": "Lulu",
    "7255": " treehouse",
    "7256": " horiz",
    "7257": " Lizzie",
    "7258": " notes",
    "7259": " echo",
    "7260": "igers",
    "7261": " achieved",
    "7262": " horizon",
    "7263": " squeak",
    "7264": " delivering",
    "7265": " pleasure",
    "7266": " hotter",
    "7267": " Stella",
    "7268": "Clara",
    "7269": " pupils",
    "7270": " burrow",
    "7271": " angels",
    "7272": " curiously",
    "7273": "Ellie",
    "7274": " yum",
    "7275": " blinking",
    "7276": " June",
    "7277": " tweet",
    "7278": " symbols",
    "7279": " det",
    "7280": " Stretch",
    "7281": "wk",
    "7282": " passen",
    "7283": " Rudy",
    "7284": " Cindy",
    "7285": " tummies",
    "7286": " tiss",
    "7287": " pigeons",
    "7288": " figures",
    "7289": "umbling",
    "7290": "oey",
    "7291": " bandages",
    "7292": " Robert",
    "7293": " coup",
    "7294": " Doctor",
    "7295": " robots",
    "7296": "alph",
    "7297": " tossed",
    "7298": " hour",
    "7299": " backwards",
    "7300": " roars",
    "7301": "Baby",
    "7302": " merma",
    "7303": "uzz",
    "7304": " rather",
    "7305": "atur",
    "7306": "Maria",
    "7307": "cited",
    "7308": " Play",
    "7309": " Crab",
    "7310": "Moo",
    "7311": "ighting",
    "7312": "Dolly",
    "7313": " groceries",
    "7314": " zipping",
    "7315": "Put",
    "7316": "Very",
    "7317": " unw",
    "7318": "prin",
    "7319": " among",
    "7320": " blown",
    "7321": " icing",
    "7322": "!”.",
    "7323": " rumble",
    "7324": " afterwards",
    "7325": "ipper",
    "7326": " screwd",
    "7327": "ushing",
    "7328": " sped",
    "7329": " prove",
    "7330": " glee",
    "7331": " Titi",
    "7332": " Tia",
    "7333": " dip",
    "7334": " overcome",
    "7335": "Ruby",
    "7336": "Quick",
    "7337": " surfboard",
    "7338": " shovels",
    "7339": " slices",
    "7340": " Toot",
    "7341": " merry",
    "7342": " wobble",
    "7343": " mate",
    "7344": " Turt",
    "7345": " Abbie",
    "7346": " heading",
    "7347": " disturbing",
    "7348": " swall",
    "7349": " reversed",
    "7350": " firefighters",
    "7351": "Jul",
    "7352": " swallowed",
    "7353": " chip",
    "7354": "eds",
    "7355": " scored",
    "7356": " flipped",
    "7357": " Jump",
    "7358": " squeezing",
    "7359": "usty",
    "7360": "Frank",
    "7361": "aty",
    "7362": "Su",
    "7363": " waking",
    "7364": " intrigued",
    "7365": "Sad",
    "7366": "Like",
    "7367": " maker",
    "7368": " Barky",
    "7369": "awn",
    "7370": "Betty",
    "7371": " puff",
    "7372": " hawk",
    "7373": " encouraging",
    "7374": " aud",
    "7375": " Ex",
    "7376": "osen",
    "7377": "onies",
    "7378": " chosen",
    "7379": " Ron",
    "7380": "hew",
    "7381": " Farmer",
    "7382": " Ang",
    "7383": " couple",
    "7384": " designs",
    "7385": " slipping",
    "7386": " screwdriver",
    "7387": " squishy",
    "7388": " Emmy",
    "7389": " gardener",
    "7390": " center",
    "7391": " rivers",
    "7392": " respond",
    "7393": " markers",
    "7394": "iley",
    "7395": " tigers",
    "7396": " jars",
    "7397": "pecting",
    "7398": " frowns",
    "7399": "bird",
    "7400": " fluttered",
    "7401": " Sadly",
    "7402": " Kit",
    "7403": "Ribbit",
    "7404": " firefighter",
    "7405": " Sl",
    "7406": " Ryan",
    "7407": " suits",
    "7408": " secure",
    "7409": " sprinkled",
    "7410": " creamy",
    "7411": "ashes",
    "7412": " sharks",
    "7413": " ignoring",
    "7414": " bru",
    "7415": " giggles",
    "7416": " tissue",
    "7417": " tighter",
    "7418": " firmly",
    "7419": "ounce",
    "7420": " Laura",
    "7421": "fly",
    "7422": " shown",
    "7423": " familiar",
    "7424": " thorns",
    "7425": "Spike",
    "7426": " Wo",
    "7427": " drawers",
    "7428": "child",
    "7429": " Zee",
    "7430": " express",
    "7431": "Car",
    "7432": "ments",
    "7433": " def",
    "7434": " daring",
    "7435": " crossing",
    "7436": " audience",
    "7437": " performing",
    "7438": " coloured",
    "7439": " cloudy",
    "7440": " cor",
    "7441": " ais",
    "7442": " Nick",
    "7443": "ae",
    "7444": "rat",
    "7445": " pedaled",
    "7446": "Get",
    "7447": " mixture",
    "7448": " til",
    "7449": " gracefully",
    "7450": "ggy",
    "7451": " haircuts",
    "7452": " yielded",
    "7453": " ponies",
    "7454": " disob",
    "7455": " crowns",
    "7456": " bits",
    "7457": " todd",
    "7458": " Sleep",
    "7459": " nervously",
    "7460": " hangers",
    "7461": "bbled",
    "7462": " Patch",
    "7463": "Zoomy",
    "7464": " pays",
    "7465": " 2",
    "7466": " peck",
    "7467": " stroke",
    "7468": " ev",
    "7469": "fall",
    "7470": "Bang",
    "7471": "een",
    "7472": " respected",
    "7473": " napped",
    "7474": "aven",
    "7475": " minded",
    "7476": "ddie",
    "7477": "Bessie",
    "7478": "ably",
    "7479": "Boys",
    "7480": " tested",
    "7481": "ading",
    "7482": "parent",
    "7483": " Chris",
    "7484": "Kim",
    "7485": " University",
    "7486": " Near",
    "7487": " beeh",
    "7488": " Turtle",
    "7489": " surfing",
    "7490": " neighbours",
    "7491": "arrow",
    "7492": "vered",
    "7493": " shady",
    "7494": "iona",
    "7495": "arlings",
    "7496": " magician",
    "7497": " enthusiasm",
    "7498": " darlings",
    "7499": " wisely",
    "7500": " stitches",
    "7501": " sails",
    "7502": "kend",
    "7503": "Dear",
    "7504": " weekend",
    "7505": " thoughts",
    "7506": "Freddy",
    "7507": " Tweetie",
    "7508": " reminds",
    "7509": " temper",
    "7510": "oring",
    "7511": "tha",
    "7512": "antha",
    "7513": " surroundings",
    "7514": " spits",
    "7515": " fleas",
    "7516": " teams",
    "7517": " lessons",
    "7518": " fills",
    "7519": " flip",
    "7520": " Along",
    "7521": " paintbrush",
    "7522": " melons",
    "7523": " mermaid",
    "7524": "oni",
    "7525": "Katie",
    "7526": " grandchild",
    "7527": " hoops",
    "7528": " explo",
    "7529": " elbow",
    "7530": " sports",
    "7531": "Guess",
    "7532": " lies",
    "7533": " Fighting",
    "7534": "rac",
    "7535": " panicked",
    "7536": " cleaner",
    "7537": " amount",
    "7538": "cused",
    "7539": " longest",
    "7540": " scooters",
    "7541": " lent",
    "7542": "ita",
    "7543": "immering",
    "7544": " sill",
    "7545": " beloved",
    "7546": "Pippin",
    "7547": " beehive",
    "7548": "Alright",
    "7549": "ongrat",
    "7550": "oga",
    "7551": "lle",
    "7552": "ongratul",
    "7553": " oysters",
    "7554": " grandparent",
    "7555": " forgiven",
    "7556": " magazines",
    "7557": " arr",
    "7558": " Wise",
    "7559": " elf",
    "7560": " repeating",
    "7561": " discussed",
    "7562": " sweetest",
    "7563": " Thanks",
    "7564": "Keep",
    "7565": " wadd",
    "7566": " Maya",
    "7567": " reass",
    "7568": " lace",
    "7569": " Granny",
    "7570": " nightmares",
    "7571": " tubes",
    "7572": " Willy",
    "7573": " understands",
    "7574": " spoonful",
    "7575": " nood",
    "7576": " bathing",
    "7577": " Zoey",
    "7578": "asty",
    "7579": "Am",
    "7580": " sweep",
    "7581": " manners",
    "7582": "crow",
    "7583": "Uncle",
    "7584": " wrink",
    "7585": " sprang",
    "7586": " nur",
    "7587": " bully",
    "7588": " Holly",
    "7589": " guide",
    "7590": " Yet",
    "7591": "onna",
    "7592": "ancy",
    "7593": " crew",
    "7594": "romise",
    "7595": "Jazz",
    "7596": " breathed",
    "7597": "while",
    "7598": "steps",
    "7599": "ilda",
    "7600": "ently",
    "7601": " Bally",
    "7602": " bulbs",
    "7603": " neare",
    "7604": " grassy",
    "7605": " wiggly",
    "7606": " testing",
    "7607": " spies",
    "7608": " coug",
    "7609": " solving",
    "7610": " sheets",
    "7611": " Roo",
    "7612": " footsteps",
    "7613": "ntil",
    "7614": "Afterwards",
    "7615": " speeding",
    "7616": " focused",
    "7617": "ounced",
    "7618": "cept",
    "7619": "?!\"",
    "7620": " mesmerized",
    "7621": " camel",
    "7622": " braver",
    "7623": " hesitant",
    "7624": " Sparkle",
    "7625": " licking",
    "7626": " rushing",
    "7627": " Well",
    "7628": " joining",
    "7629": " Puppy",
    "7630": " polar",
    "7631": " greeted",
    "7632": " Martha",
    "7633": "espite",
    "7634": "--",
    "7635": " Bubb",
    "7636": "Which",
    "7637": "Kiki",
    "7638": " worn",
    "7639": " materials",
    "7640": " changes",
    "7641": " Nobody",
    "7642": "undred",
    "7643": " stored",
    "7644": " bicycles",
    "7645": " mast",
    "7646": " anger",
    "7647": "Leave",
    "7648": " peacefully",
    "7649": " ships",
    "7650": " spice",
    "7651": " terrified",
    "7652": " nuzz",
    "7653": " gonna",
    "7654": " Show",
    "7655": " politely",
    "7656": "Snow",
    "7657": " spills",
    "7658": " scarecrow",
    "7659": " knives",
    "7660": " evil",
    "7661": " Mixy",
    "7662": "ppies",
    "7663": " burying",
    "7664": "ca",
    "7665": " healing",
    "7666": " aren",
    "7667": " donkey",
    "7668": " aeroplanes",
    "7669": "freeze",
    "7670": "Even",
    "7671": " seals",
    "7672": " scattering",
    "7673": " miles",
    "7674": " Chewy",
    "7675": "amboo",
    "7676": " dump",
    "7677": " worrying",
    "7678": "Bee",
    "7679": "zoom",
    "7680": "beep",
    "7681": "David",
    "7682": " Lenny",
    "7683": " puzzled",
    "7684": " stacked",
    "7685": " Kip",
    "7686": "Penny",
    "7687": " Nice",
    "7688": " loses",
    "7689": "dding",
    "7690": " travelled",
    "7691": " baskets",
    "7692": " Win",
    "7693": " Okay",
    "7694": " gazing",
    "7695": " blast",
    "7696": "ipes",
    "7697": " Tess",
    "7698": "Hurry",
    "7699": " temperature",
    "7700": " und",
    "7701": " tasting",
    "7702": " dripping",
    "7703": " clue",
    "7704": " believing",
    "7705": " pinching",
    "7706": "erm",
    "7707": " soaking",
    "7708": " rats",
    "7709": " 10",
    "7710": "isc",
    "7711": " sandy",
    "7712": "rect",
    "7713": " Isn",
    "7714": " Simon",
    "7715": "rey",
    "7716": "anwhile",
    "7717": " Abi",
    "7718": "Binky",
    "7719": " punishment",
    "7720": " banged",
    "7721": " humans",
    "7722": " crashing",
    "7723": " force",
    "7724": " Ana",
    "7725": " hundred",
    "7726": " gest",
    "7727": " Lia",
    "7728": " swimmer",
    "7729": " Chess",
    "7730": " snowflakes",
    "7731": " relaxing",
    "7732": " resisted",
    "7733": " beeped",
    "7734": " Fairy",
    "7735": " quarreled",
    "7736": "form",
    "7737": "elie",
    "7738": " ramp",
    "7739": " Wendy",
    "7740": " joins",
    "7741": "abby",
    "7742": " backpacks",
    "7743": " Ph",
    "7744": "years",
    "7745": " dressing",
    "7746": " delayed",
    "7747": " toddler",
    "7748": " Luckily",
    "7749": " flight",
    "7750": " covering",
    "7751": " Te",
    "7752": "orter",
    "7753": "Two",
    "7754": "Open",
    "7755": "By",
    "7756": " encouragement",
    "7757": " benches",
    "7758": " toward",
    "7759": " scraped",
    "7760": " purpose",
    "7761": " focus",
    "7762": " Judy",
    "7763": "Bow",
    "7764": " correct",
    "7765": "'.\"",
    "7766": " lipstick",
    "7767": " bamboo",
    "7768": "Spe",
    "7769": " twinkled",
    "7770": " potion",
    "7771": " permitted",
    "7772": " months",
    "7773": " Cow",
    "7774": " languages",
    "7775": " orders",
    "7776": " freedom",
    "7777": "Tony",
    "7778": " risks",
    "7779": " poppies",
    "7780": " master",
    "7781": "shm",
    "7782": " noodles",
    "7783": " faded",
    "7784": " wounds",
    "7785": "shmallow",
    "7786": "rier",
    "7787": "Kids",
    "7788": "isions",
    "7789": " Jojo",
    "7790": " creams",
    "7791": " birdhouse",
    "7792": " cells",
    "7793": " annoyed",
    "7794": " Herb",
    "7795": "opes",
    "7796": " sniffing",
    "7797": " cheers",
    "7798": " adults",
    "7799": "Birdy",
    "7800": " unwra",
    "7801": "ecca",
    "7802": "Buzzy",
    "7803": " puck",
    "7804": " opinions",
    "7805": " floats",
    "7806": "andas",
    "7807": "Instead",
    "7808": " flown",
    "7809": " sneezes",
    "7810": " scen",
    "7811": " handsome",
    "7812": " nodding",
    "7813": " Mint",
    "7814": " smelling",
    "7815": " burnt",
    "7816": " 5",
    "7817": " drifted",
    "7818": "ider",
    "7819": "bage",
    "7820": " within",
    "7821": " scient",
    "7822": " height",
    "7823": " damaged",
    "7824": " bothering",
    "7825": " tearing",
    "7826": " slither",
    "7827": " pleaded",
    "7828": " instruments",
    "7829": " ease",
    "7830": " Ali",
    "7831": "da",
    "7832": "Back",
    "7833": " scientist",
    "7834": " Marie",
    "7835": "Mira",
    "7836": "Goodnight",
    "7837": " pound",
    "7838": " seller",
    "7839": " handing",
    "7840": " germ",
    "7841": " Say",
    "7842": " wasting",
    "7843": " files",
    "7844": " results",
    "7845": " dreamt",
    "7846": " Mabel",
    "7847": "bell",
    "7848": " explains",
    "7849": " destroying",
    "7850": " brushing",
    "7851": "ousy",
    "7852": " hiss",
    "7853": " characters",
    "7854": " Razor",
    "7855": " Cr",
    "7856": "Carl",
    "7857": " certain",
    "7858": " Ste",
    "7859": "Pandy",
    "7860": "Behind",
    "7861": " sweaty",
    "7862": " Hug",
    "7863": "unched",
    "7864": " business",
    "7865": " Robbie",
    "7866": " talents",
    "7867": " onward",
    "7868": "Try",
    "7869": " engines",
    "7870": " bravest",
    "7871": "ition",
    "7872": " sternly",
    "7873": " Pen",
    "7874": " Janie",
    "7875": "prints",
    "7876": " postman",
    "7877": " mosquitoes",
    "7878": " minds",
    "7879": "under",
    "7880": "cake",
    "7881": " tuck",
    "7882": " scares",
    "7883": "urious",
    "7884": " stomp",
    "7885": " apologised",
    "7886": "uel",
    "7887": " manag",
    "7888": " snuck",
    "7889": " bitten",
    "7890": "attered",
    "7891": " tilted",
    "7892": " switched",
    "7893": " reminding",
    "7894": " decisions",
    "7895": " singers",
    "7896": " desper",
    "7897": " behavior",
    "7898": " Poor",
    "7899": "ashing",
    "7900": " Judge",
    "7901": "bbers",
    "7902": "inny",
    "7903": " squeaked",
    "7904": " peeled",
    "7905": " Everybody",
    "7906": " yumm",
    "7907": " purrs",
    "7908": " Bra",
    "7909": " treated",
    "7910": " smashed",
    "7911": " rustling",
    "7912": " displayed",
    "7913": " Until",
    "7914": " neatly",
    "7915": " matey",
    "7916": " planting",
    "7917": " Bess",
    "7918": " marshmallow",
    "7919": " insp",
    "7920": " yelped",
    "7921": " sy",
    "7922": " grandparents",
    "7923": " cracks",
    "7924": " bellies",
    "7925": "aver",
    "7926": " shines",
    "7927": " scamp",
    "7928": " Navy",
    "7929": " hoo",
    "7930": " failed",
    "7931": " coloring",
    "7932": " Yoga",
    "7933": "line",
    "7934": " zooms",
    "7935": " Make",
    "7936": "rup",
    "7937": " nasty",
    "7938": " breathing",
    "7939": " combed",
    "7940": " pandas",
    "7941": " despite",
    "7942": " address",
    "7943": "ighing",
    "7944": " waterfall",
    "7945": "uffin",
    "7946": "omp",
    "7947": "cc",
    "7948": " Loop",
    "7949": " Angel",
    "7950": "Tilly",
    "7951": " wider",
    "7952": " robbers",
    "7953": " antic",
    "7954": "Play",
    "7955": "Abigail",
    "7956": " sweaters",
    "7957": " echoed",
    "7958": " doorway",
    "7959": " Todd",
    "7960": "evin",
    "7961": " edges",
    "7962": " inj",
    "7963": " Shadow",
    "7964": "Aunt",
    "7965": " gap",
    "7966": " disobey",
    "7967": " Blinky",
    "7968": "wise",
    "7969": "Liz",
    "7970": " Michael",
    "7971": " tar",
    "7972": " Flick",
    "7973": "oscope",
    "7974": "orking",
    "7975": "Wake",
    "7976": " taped",
    "7977": " magnif",
    "7978": "ulp",
    "7979": "father",
    "7980": " scolds",
    "7981": " flaps",
    "7982": " action",
    "7983": " crawls",
    "7984": " Mindy",
    "7985": "Ros",
    "7986": " swap",
    "7987": " gobbled",
    "7988": " backs",
    "7989": " Gary",
    "7990": " warri",
    "7991": " Fishy",
    "7992": " Eddie",
    "7993": "Slow",
    "7994": " steth",
    "7995": " sever",
    "7996": " shinier",
    "7997": " probably",
    "7998": " newspapers",
    "7999": " several",
    "8000": " occ",
    "8001": "Rock",
    "8002": "Lena",
    "8003": " encount",
    "8004": " Meg",
    "8005": " serving",
    "8006": " quieter",
    "8007": " plucked",
    "8008": " connected",
    "8009": "tock",
    "8010": " Share",
    "8011": " ouch",
    "8012": "igger",
    "8013": "Ted",
    "8014": "Adam",
    "8015": " gesture",
    "8016": "Too",
    "8017": "Fl",
    "8018": " student",
    "8019": " plot",
    "8020": " doorbell",
    "8021": " squaw",
    "8022": " cares",
    "8023": "fire",
    "8024": " rescuing",
    "8025": " grandson",
    "8026": " Se",
    "8027": " spy",
    "8028": " simply",
    "8029": " rows",
    "8030": " goo",
    "8031": "iel",
    "8032": " whistles",
    "8033": "mies",
    "8034": "vant",
    "8035": "Shrink",
    "8036": "Magic",
    "8037": " snaps",
    "8038": " shorter",
    "8039": " astronauts",
    "8040": "ssss",
    "8041": " unpacking",
    "8042": " cottage",
    "8043": " Time",
    "8044": " swo",
    "8045": " accidents",
    "8046": "ibi",
    "8047": " swollen",
    "8048": " mood",
    "8049": " Nut",
    "8050": "Steve",
    "8051": "abelle",
    "8052": " Zippy",
    "8053": " Mousy",
    "8054": "anie",
    "8055": "Zara",
    "8056": " bothered",
    "8057": "Hannah",
    "8058": " stethoscope",
    "8059": "found",
    "8060": " trusting",
    "8061": " causing",
    "8062": "Mat",
    "8063": "Mad",
    "8064": " leapt",
    "8065": " dresser",
    "8066": "aint",
    "8067": " sou",
    "8068": " proper",
    "8069": " pills",
    "8070": "retty",
    "8071": " throughout",
    "8072": "Olive",
    "8073": " runner",
    "8074": " prayers",
    "8075": " Dina",
    "8076": " joyful",
    "8077": "Thomas",
    "8078": "mates",
    "8079": " locks",
    "8080": " Prince",
    "8081": "Jamie",
    "8082": " goats",
    "8083": "what",
    "8084": " target",
    "8085": "rest",
    "8086": " Wait",
    "8087": " Karen",
    "8088": " dears",
    "8089": " Bang",
    "8090": "artled",
    "8091": "Red",
    "8092": " waddled",
    "8093": " munch",
    "8094": " flips",
    "8095": " Cro",
    "8096": " lowered",
    "8097": " stepping",
    "8098": " cons",
    "8099": " Jackie",
    "8100": " teachers",
    "8101": " cowboy",
    "8102": " Toys",
    "8103": " inches",
    "8104": " envelopes",
    "8105": "ears",
    "8106": " char",
    "8107": " Vroom",
    "8108": " explorer",
    "8109": " anticip",
    "8110": " playd",
    "8111": " Ready",
    "8112": " Ruff",
    "8113": " Ralph",
    "8114": "unity",
    "8115": "Nice",
    "8116": "Finn",
    "8117": " Bad",
    "8118": "ening",
    "8119": " knocking",
    "8120": " floors",
    "8121": " efforts",
    "8122": " Pl",
    "8123": " uniforms",
    "8124": "lied",
    "8125": " Tri",
    "8126": " aware",
    "8127": " footprints",
    "8128": "Someone",
    "8129": " nearly",
    "8130": " Fiona",
    "8131": "llas",
    "8132": " disc",
    "8133": " Ria",
    "8134": "ivi",
    "8135": " whimp",
    "8136": " trot",
    "8137": " sens",
    "8138": " glitt",
    "8139": " appreciation",
    "8140": "oosh",
    "8141": " necks",
    "8142": " collap",
    "8143": " checks",
    "8144": " lapt",
    "8145": " except",
    "8146": " plug",
    "8147": " charge",
    "8148": " Jacky",
    "8149": " fluttering",
    "8150": " umbrellas",
    "8151": " stamped",
    "8152": "acy",
    "8153": " sandcastles",
    "8154": " Davey",
    "8155": " statues",
    "8156": " Honey",
    "8157": "omb",
    "8158": "iscuit",
    "8159": "ails",
    "8160": "Hoppy",
    "8161": " shrank",
    "8162": " Amelia",
    "8163": "rily",
    "8164": " prick",
    "8165": " finishing",
    "8166": " adds",
    "8167": "rons",
    "8168": " stroll",
    "8169": " hunters",
    "8170": " dodged",
    "8171": " chocolates",
    "8172": " passengers",
    "8173": " germs",
    "8174": "oger",
    "8175": " wrigg",
    "8176": " aprons",
    "8177": " aisle",
    "8178": " sets",
    "8179": ".'\"",
    "8180": " Gerry",
    "8181": " weeds",
    "8182": " novels",
    "8183": "order",
    "8184": " demanding",
    "8185": " Taking",
    "8186": " scratching",
    "8187": " meows",
    "8188": "issa",
    "8189": "Dr",
    "8190": " nurses",
    "8191": "Lucky",
    "8192": " minding",
    "8193": " discussing",
    "8194": "urrender",
    "8195": " killed",
    "8196": " driveway",
    "8197": " Cari",
    "8198": " becomes",
    "8199": " toolbox",
    "8200": " laptop",
    "8201": " haird",
    "8202": " Eliz",
    "8203": " posit",
    "8204": " attack",
    "8205": " Sadie",
    "8206": " Despite",
    "8207": "Speedy",
    "8208": " Gl",
    "8209": "sol",
    "8210": " scampered",
    "8211": " bounces",
    "8212": " supplied",
    "8213": " sprays",
    "8214": " deed",
    "8215": " tempt",
    "8216": " suggestion",
    "8217": " friendships",
    "8218": " burns",
    "8219": "Coco",
    "8220": " slapping",
    "8221": " closing",
    "8222": "Arrr",
    "8223": " invites",
    "8224": " belongings",
    "8225": " anticipation",
    "8226": " springing",
    "8227": " form",
    "8228": " erase",
    "8229": " cotton",
    "8230": " Stan",
    "8231": " twists",
    "8232": " rays",
    "8233": " snuggle",
    "8234": " forgives",
    "8235": " models",
    "8236": " shall",
    "8237": " massages",
    "8238": " humming",
    "8239": "onnie",
    "8240": " responded",
    "8241": " newfound",
    "8242": " ghosts",
    "8243": " expecting",
    "8244": " Shelly",
    "8245": " cheated",
    "8246": "Does",
    "8247": " Wooly",
    "8248": "Gigi",
    "8249": "otte",
    "8250": " traveling",
    "8251": " Ne",
    "8252": " cond",
    "8253": " battle",
    "8254": " although",
    "8255": "alloween",
    "8256": " mommies",
    "8257": " invitations",
    "8258": " carries",
    "8259": " aim",
    "8260": " refreshing",
    "8261": " presented",
    "8262": " conc",
    "8263": "hel",
    "8264": " twenty",
    "8265": " rowed",
    "8266": " Bumpy",
    "8267": "ots",
    "8268": " squir",
    "8269": "rie",
    "8270": "arlotte",
    "8271": " foxes",
    "8272": " cooper",
    "8273": " final",
    "8274": " duckling",
    "8275": " cafe",
    "8276": " Bibi",
    "8277": "Pip",
    "8278": " marshmallows",
    "8279": " clicked",
    "8280": " Zipper",
    "8281": "oor",
    "8282": " jets",
    "8283": " designing",
    "8284": " beaver",
    "8285": "five",
    "8286": " Muffin",
    "8287": " Halloween",
    "8288": " mugs",
    "8289": " Whoever",
    "8290": " drown",
    "8291": " Although",
    "8292": " tricycle",
    "8293": " picnics",
    "8294": " oppos",
    "8295": " convin",
    "8296": " Ruth",
    "8297": " Excited",
    "8298": "iens",
    "8299": " Cle",
    "8300": "po",
    "8301": " scoops",
    "8302": " congratul",
    "8303": " Pop",
    "8304": " Maddie",
    "8305": "Sadly",
    "8306": " —",
    "8307": " travels",
    "8308": " aliens",
    "8309": " tests",
    "8310": " questioned",
    "8311": " Speed",
    "8312": "inted",
    "8313": " strips",
    "8314": " craft",
    "8315": "Near",
    "8316": "atty",
    "8317": "Mouse",
    "8318": "covered",
    "8319": " defe",
    "8320": " Flutter",
    "8321": " Bubba",
    "8322": "iri",
    "8323": "Br",
    "8324": " fights",
    "8325": "roken",
    "8326": "Ball",
    "8327": " opposite",
    "8328": " Biggy",
    "8329": "Hmm",
    "8330": "Find",
    "8331": "Elly",
    "8332": "Chloe",
    "8333": " Im",
    "8334": " rout",
    "8335": " grandfather",
    "8336": " encountered",
    "8337": " afford",
    "8338": " Never",
    "8339": " decl",
    "8340": "inch",
    "8341": " raising",
    "8342": "iment",
    "8343": " upside",
    "8344": " Vivi",
    "8345": "Meanwhile",
    "8346": "Jess",
    "8347": " flashed",
    "8348": " calmly",
    "8349": " Rita",
    "8350": " yawning",
    "8351": " sincere",
    "8352": " realizes",
    "8353": "aturday",
    "8354": "Trust",
    "8355": "Choo",
    "8356": " crystals",
    "8357": " buddy",
    "8358": " Samantha",
    "8359": " cupcakes",
    "8360": " buckled",
    "8361": "byes",
    "8362": "Both",
    "8363": " winners",
    "8364": " defin",
    "8365": "verse",
    "8366": "ris",
    "8367": "',",
    "8368": " weapons",
    "8369": " caw",
    "8370": "shadow",
    "8371": "Josh",
    "8372": " packages",
    "8373": " cheat",
    "8374": " Saturday",
    "8375": " sacks",
    "8376": " messes",
    "8377": " goodbyes",
    "8378": " coach",
    "8379": " attem",
    "8380": "quet",
    "8381": " convers",
    "8382": " Truck",
    "8383": " Flo",
    "8384": "val",
    "8385": " drift",
    "8386": " caps",
    "8387": " Mina",
    "8388": " Eva",
    "8389": "emies",
    "8390": " enemies",
    "8391": "asha",
    "8392": " yummiest",
    "8393": " scrub",
    "8394": " swallow",
    "8395": " returning",
    "8396": "rian",
    "8397": " admiration",
    "8398": " Softy",
    "8399": " Megan",
    "8400": "Since",
    "8401": " sprout",
    "8402": " Louise",
    "8403": " unable",
    "8404": " Playing",
    "8405": " Another",
    "8406": "ugging",
    "8407": "ooks",
    "8408": " sadder",
    "8409": " freezing",
    "8410": " brightest",
    "8411": " bless",
    "8412": " Yawn",
    "8413": " respon",
    "8414": " Man",
    "8415": "reverse",
    "8416": " response",
    "8417": " cosy",
    "8418": " Oh",
    "8419": " diamonds",
    "8420": " bride",
    "8421": "stalk",
    "8422": " reapp",
    "8423": " opport",
    "8424": " honking",
    "8425": " garbage",
    "8426": " whispering",
    "8427": " stretches",
    "8428": " prevented",
    "8429": "erk",
    "8430": "antastic",
    "8431": " whoever",
    "8432": " odd",
    "8433": " awful",
    "8434": " Gray",
    "8435": "alth",
    "8436": " weighs",
    "8437": " journeys",
    "8438": " awoke",
    "8439": "Brrr",
    "8440": " traps",
    "8441": " spices",
    "8442": " dragonfly",
    "8443": "off",
    "8444": " born",
    "8445": " reassured",
    "8446": " clip",
    "8447": "ivia",
    "8448": " stall",
    "8449": " beanstalk",
    "8450": " argum",
    "8451": " examining",
    "8452": " definitely",
    "8453": " beetles",
    "8454": " automobiles",
    "8455": " Maisy",
    "8456": "mine",
    "8457": "ici",
    "8458": "Hop",
    "8459": " visitors",
    "8460": " stuffing",
    "8461": " playdate",
    "8462": " washes",
    "8463": "cie",
    "8464": "broken",
    "8465": " wiser",
    "8466": " customer",
    "8467": "uper",
    "8468": "emma",
    "8469": "Rachel",
    "8470": " travelling",
    "8471": " Sofia",
    "8472": " Jolly",
    "8473": " Flop",
    "8474": "ouquet",
    "8475": " hairdress",
    "8476": " bouquet",
    "8477": " Nurse",
    "8478": "orse",
    "8479": "bble",
    "8480": ",'",
    "8481": " tumbled",
    "8482": " decoration",
    "8483": " campfire",
    "8484": " Elle",
    "8485": " honesty",
    "8486": " bud",
    "8487": "vy",
    "8488": "ebecca",
    "8489": "Only",
    "8490": " bomb",
    "8491": " welcoming",
    "8492": " offering",
    "8493": " wealth",
    "8494": " troubles",
    "8495": " occas",
    "8496": " increasing",
    "8497": " Ot",
    "8498": " Jax",
    "8499": " Hello",
    "8500": " loudest",
    "8501": " inspired",
    "8502": " type",
    "8503": " parted",
    "8504": " groan",
    "8505": " Chick",
    "8506": " Nutty",
    "8507": "irac",
    "8508": " whales",
    "8509": " Thunder",
    "8510": " Ricky",
    "8511": "yl",
    "8512": " declared",
    "8513": " correctly",
    "8514": "yler",
    "8515": "ooky",
    "8516": "fus",
    "8517": " beaks",
    "8518": " Quacky",
    "8519": "athan",
    "8520": " cleared",
    "8521": " cowboys",
    "8522": " nuzzled",
    "8523": " Dotty",
    "8524": " prizes",
    "8525": " exch",
    "8526": "Finny",
    "8527": " warmly",
    "8528": " Missile",
    "8529": " rewards",
    "8530": " obeyed",
    "8531": " customers",
    "8532": "Should",
    "8533": " sirens",
    "8534": " comforting",
    "8535": " Fel",
    "8536": "shaped",
    "8537": " connect",
    "8538": " Flappy",
    "8539": "match",
    "8540": " towns",
    "8541": " Magic",
    "8542": " Bingo",
    "8543": "elieve",
    "8544": " rely",
    "8545": " Vicky",
    "8546": "Honey",
    "8547": " trigger",
    "8548": " owns",
    "8549": " insisting",
    "8550": " fantastic",
    "8551": " bends",
    "8552": " Fe",
    "8553": " spoiling",
    "8554": " hairdresser",
    "8555": " surrendered",
    "8556": " supporting",
    "8557": " shares",
    "8558": " poses",
    "8559": " pipes",
    "8560": " cleans",
    "8561": "rench",
    "8562": "Sun",
    "8563": "Outside",
    "8564": "Julie",
    "8565": " wrinkled",
    "8566": " Cook",
    "8567": " chopped",
    "8568": " recorder",
    "8569": " moons",
    "8570": " beaming",
    "8571": "unes",
    "8572": "ellow",
    "8573": "Beth",
    "8574": " thanking",
    "8575": " snowy",
    "8576": " Wolf",
    "8577": " scurry",
    "8578": " experien",
    "8579": " enjoyable",
    "8580": " active",
    "8581": " coral",
    "8582": " Piggy",
    "8583": " environ",
    "8584": " dollar",
    "8585": " Kevin",
    "8586": "worm",
    "8587": "elope",
    "8588": " loc",
    "8589": "Je",
    "8590": " streamers",
    "8591": " Bub",
    "8592": "udged",
    "8593": " Patty",
    "8594": " Mother",
    "8595": " Zack",
    "8596": "inger",
    "8597": "Suzy",
    "8598": " examp",
    "8599": " shorts",
    "8600": " shooed",
    "8601": " environment",
    "8602": "Tree",
    "8603": " ill",
    "8604": " scent",
    "8605": " bruises",
    "8606": "uster",
    "8607": " grat",
    "8608": " Luc",
    "8609": "Bo",
    "8610": " hisses",
    "8611": " steering",
    "8612": " self",
    "8613": " plugged",
    "8614": " Elsa",
    "8615": " warrior",
    "8616": " visits",
    "8617": " exercises",
    "8618": "screen",
    "8619": "irl",
    "8620": "aptain",
    "8621": " dangers",
    "8622": " cuddles",
    "8623": " Rel",
    "8624": " Min",
    "8625": " Ar",
    "8626": " unfortunately",
    "8627": " squished",
    "8628": " signing",
    "8629": " Light",
    "8630": "bee",
    "8631": "Ray",
    "8632": " pilots",
    "8633": " disappoint",
    "8634": "munk",
    "8635": " gratitude",
    "8636": " applauding",
    "8637": " providing",
    "8638": " Moppy",
    "8639": "alf",
    "8640": " tickles",
    "8641": " ting",
    "8642": " Rub",
    "8643": "Grow",
    "8644": " storms",
    "8645": " nights",
    "8646": " jud",
    "8647": " convinced",
    "8648": " badger",
    "8649": " Elsie",
    "8650": " youn",
    "8651": " responsib",
    "8652": " choosing",
    "8653": " Kelly",
    "8654": "Joy",
    "8655": " youngest",
    "8656": " nearest",
    "8657": " brains",
    "8658": " activity",
    "8659": "Abby",
    "8660": " exploded",
    "8661": " coughed",
    "8662": " arranged",
    "8663": "Claire",
    "8664": " rewarding",
    "8665": " Tre",
    "8666": " Fly",
    "8667": "pr",
    "8668": "good",
    "8669": "erpiece",
    "8670": " sunscreen",
    "8671": " peep",
    "8672": " bond",
    "8673": " Floppy",
    "8674": "asers",
    "8675": "Mon",
    "8676": " Tweety",
    "8677": " Sweet",
    "8678": " Katy",
    "8679": " Joan",
    "8680": " Sal",
    "8681": "ilities",
    "8682": " annoying",
    "8683": "sn",
    "8684": " soapy",
    "8685": "meow",
    "8686": "Splash",
    "8687": " rails",
    "8688": " laces",
    "8689": " threads",
    "8690": " tapping",
    "8691": " offic",
    "8692": " appreciated",
    "8693": " Pine",
    "8694": " Phil",
    "8695": "boards",
    "8696": " weighing",
    "8697": " heartbroken",
    "8698": " emerged",
    "8699": " congratulated",
    "8700": " Pick",
    "8701": "Danger",
    "8702": " tin",
    "8703": " Sil",
    "8704": " crocodiles",
    "8705": " clerk",
    "8706": " scram",
    "8707": " attempt",
    "8708": " Nancy",
    "8709": "water",
    "8710": "Ahoy",
    "8711": " snug",
    "8712": " messed",
    "8713": " example",
    "8714": " dial",
    "8715": " Kay",
    "8716": " Any",
    "8717": "Momma",
    "8718": " hooks",
    "8719": " Jonny",
    "8720": " tops",
    "8721": " chipmunk",
    "8722": " soot",
    "8723": " guarding",
    "8724": " bathed",
    "8725": " manager",
    "8726": " Tippy",
    "8727": "ortunately",
    "8728": " Microscope",
    "8729": "Friends",
    "8730": " De",
    "8731": "etah",
    "8732": "Snowy",
    "8733": " masterpiece",
    "8734": " Baa",
    "8735": " erasers",
    "8736": " tips",
    "8737": " finishes",
    "8738": " fet",
    "8739": " common",
    "8740": " Tomorrow",
    "8741": "mbers",
    "8742": " trotted",
    "8743": " nibbled",
    "8744": " members",
    "8745": " digs",
    "8746": "People",
    "8747": " kinder",
    "8748": " cheetah",
    "8749": " particularly",
    "8750": " chews",
    "8751": " blond",
    "8752": "ircle",
    "8753": " rips",
    "8754": " beast",
    "8755": "Lizzy",
    "8756": " argument",
    "8757": "ative",
    "8758": " faith",
    "8759": " Helping",
    "8760": " earned",
    "8761": "Anne",
    "8762": " observing",
    "8763": " forgiveness",
    "8764": " Joke",
    "8765": " Cici",
    "8766": "chievous",
    "8767": " instantly",
    "8768": " fishes",
    "8769": " experienced",
    "8770": " curl",
    "8771": " cheaper",
    "8772": " Jumpy",
    "8773": "Rosie",
    "8774": " mischievous",
    "8775": " generosity",
    "8776": " cages",
    "8777": " Twist",
    "8778": "Gr",
    "8779": "Baa",
    "8780": " meowing",
    "8781": " foam",
    "8782": "mered",
    "8783": "Cindy",
    "8784": " stores",
    "8785": " grandd",
    "8786": " Ag",
    "8787": "etchup",
    "8788": " mattered",
    "8789": " teles",
    "8790": " passes",
    "8791": " limp",
    "8792": "Sque",
    "8793": " sleeps",
    "8794": "iolet",
    "8795": " breaths",
    "8796": "ordinary",
    "8797": "ettle",
    "8798": "ending",
    "8799": " trans",
    "8800": " rin",
    "8801": " gasps",
    "8802": " Freddie",
    "8803": "Got",
    "8804": " rumbling",
    "8805": " hatch",
    "8806": " Momma",
    "8807": "over",
    "8808": "abra",
    "8809": " grassho",
    "8810": " accomplished",
    "8811": " Hopper",
    "8812": "acing",
    "8813": " thump",
    "8814": " telescope",
    "8815": " strum",
    "8816": " smartest",
    "8817": " mats",
    "8818": " whined",
    "8819": " moat",
    "8820": "Gina",
    "8821": " scrambled",
    "8822": " jugg",
    "8823": " farmers",
    "8824": " Ice",
    "8825": " drip",
    "8826": "Robbie",
    "8827": " syrup",
    "8828": " gardens",
    "8829": " collapsed",
    "8830": " angrily",
    "8831": " More",
    "8832": "ouraged",
    "8833": "idey",
    "8834": " vegg",
    "8835": " styles",
    "8836": " forests",
    "8837": " experiences",
    "8838": " discoveries",
    "8839": "hole",
    "8840": " tor",
    "8841": " medals",
    "8842": " types",
    "8843": " otters",
    "8844": " meaning",
    "8845": " faint",
    "8846": " conqu",
    "8847": " Does",
    "8848": "pit",
    "8849": "adabra",
    "8850": "acock",
    "8851": " snapping",
    "8852": " hardest",
    "8853": " fif",
    "8854": "ering",
    "8855": " movements",
    "8856": " expression",
    "8857": " surv",
    "8858": " chilly",
    "8859": " bubbly",
    "8860": " affect",
    "8861": "Pinky",
    "8862": " vests",
    "8863": " unfair",
    "8864": " court",
    "8865": "Whenever",
    "8866": " toothbrush",
    "8867": " scores",
    "8868": " extraordinary",
    "8869": "Never",
    "8870": " attitude",
    "8871": " vibr",
    "8872": " horri",
    "8873": " bluebird",
    "8874": " Monkey",
    "8875": "mel",
    "8876": "lls",
    "8877": "Mo",
    "8878": " spears",
    "8879": " ketchup",
    "8880": " Berry",
    "8881": "Mother",
    "8882": " sooner",
    "8883": " grasshopper",
    "8884": " behaviour",
    "8885": " patches",
    "8886": " habit",
    "8887": "yd",
    "8888": "erts",
    "8889": "Karen",
    "8890": " pokes",
    "8891": " momma",
    "8892": " afar",
    "8893": " Ashley",
    "8894": "lo",
    "8895": "ieves",
    "8896": "Jacob",
    "8897": " thicker",
    "8898": " scri",
    "8899": " Friend",
    "8900": "Jon",
    "8901": " squeezes",
    "8902": " slithered",
    "8903": " shrunk",
    "8904": " classmates",
    "8905": " Terry",
    "8906": " Fle",
    "8907": " icky",
    "8908": " prickly",
    "8909": " glittering",
    "8910": " expert",
    "8911": " topp",
    "8912": " kneeling",
    "8913": " announced",
    "8914": " Super",
    "8915": " Riri",
    "8916": "elling",
    "8917": " peacock",
    "8918": " marking",
    "8919": "ctric",
    "8920": " costs",
    "8921": " Cally",
    "8922": " Achoo",
    "8923": " zigzags",
    "8924": " watermel",
    "8925": " thieves",
    "8926": " skirts",
    "8927": " jumper",
    "8928": " hood",
    "8929": " acts",
    "8930": " Zog",
    "8931": " App",
    "8932": " wolves",
    "8933": " Swim",
    "8934": " Cloud",
    "8935": "Papa",
    "8936": " thumbs",
    "8937": " squeaky",
    "8938": " concer",
    "8939": " cocoon",
    "8940": " woodcut",
    "8941": " boards",
    "8942": " Eliza",
    "8943": " Becky",
    "8944": " servant",
    "8945": "idence",
    "8946": "affle",
    "8947": " cheating",
    "8948": " Jason",
    "8949": "bu",
    "8950": " trading",
    "8951": " raking",
    "8952": "cat",
    "8953": "Jessie",
    "8954": " explaining",
    "8955": " Eric",
    "8956": "rick",
    "8957": " tidied",
    "8958": " biscuit",
    "8959": " lunchtime",
    "8960": " luckily",
    "8961": " Ac",
    "8962": "anced",
    "8963": "Frog",
    "8964": " Puffy",
    "8965": " spilling",
    "8966": " Day",
    "8967": "Fire",
    "8968": " transform",
    "8969": " desserts",
    "8970": " Use",
    "8971": " Maddy",
    "8972": " Daniel",
    "8973": " Animal",
    "8974": "…",
    "8975": "ror",
    "8976": " Pig",
    "8977": " Mine",
    "8978": " Still",
    "8979": " Gill",
    "8980": "rough",
    "8981": "amma",
    "8982": " messages",
    "8983": " mirac",
    "8984": " Captain",
    "8985": "idy",
    "8986": " windowsill",
    "8987": " chill",
    "8988": " beating",
    "8989": " Tammy",
    "8990": " Lung",
    "8991": " Gilly",
    "8992": "oot",
    "8993": " seeking",
    "8994": " actor",
    "8995": " Rainbow",
    "8996": " Lina",
    "8997": " William",
    "8998": "sess",
    "8999": "its",
    "9000": " Math",
    "9001": "pril",
    "9002": "Any",
    "9003": " foreshadow",
    "9004": "war",
    "9005": "acles",
    "9006": "Bluey",
    "9007": " leans",
    "9008": " Step",
    "9009": " Pinch",
    "9010": " Hi",
    "9011": "racadabra",
    "9012": "Freeze",
    "9013": "Bounce",
    "9014": " watermelon",
    "9015": " hissing",
    "9016": " flashing",
    "9017": " dev",
    "9018": " cloths",
    "9019": " Tiger",
    "9020": " Monster",
    "9021": " Frankie",
    "9022": " winding",
    "9023": " positive",
    "9024": " funn",
    "9025": " discouraged",
    "9026": " Wil",
    "9027": "pop",
    "9028": " woodcutter",
    "9029": " forts",
    "9030": " dripped",
    "9031": " compete",
    "9032": " teapot",
    "9033": " pressing",
    "9034": " disagreeing",
    "9035": "icking",
    "9036": " glimmering",
    "9037": " veggies",
    "9038": " trusts",
    "9039": " tidying",
    "9040": " kangaroos",
    "9041": " Peep",
    "9042": " tempted",
    "9043": " landing",
    "9044": " Flora",
    "9045": " dock",
    "9046": " shallow",
    "9047": " overw",
    "9048": " formed",
    "9049": "lers",
    "9050": " rack",
    "9051": " fade",
    "9052": " Tooth",
    "9053": "flowers",
    "9054": " worst",
    "9055": " electric",
    "9056": " cops",
    "9057": "eling",
    "9058": "Nothing",
    "9059": " apology",
    "9060": "iving",
    "9061": "creams",
    "9062": "ai",
    "9063": " sleds",
    "9064": " Silver",
    "9065": " Life",
    "9066": "upid",
    "9067": " comets",
    "9068": " ass",
    "9069": "Owl",
    "9070": " sav",
    "9071": " Shark",
    "9072": " Mag",
    "9073": " Jelly",
    "9074": "Bug",
    "9075": " situations",
    "9076": " papa",
    "9077": " officers",
    "9078": " conversation",
    "9079": " 4",
    "9080": "Rain",
    "9081": " Roger",
    "9082": " Charlotte",
    "9083": "storm",
    "9084": "aye",
    "9085": " suns",
    "9086": " ding",
    "9087": "”,",
    "9088": " zips",
    "9089": " structures",
    "9090": " scurrying",
    "9091": " pizzas",
    "9092": " overwhel",
    "9093": " miller",
    "9094": " Butter",
    "9095": " granddaughter",
    "9096": " foggy",
    "9097": " Olivia",
    "9098": " Hurry",
    "9099": " Amber",
    "9100": "Zoe",
    "9101": " Janey",
    "9102": " webs",
    "9103": " deserved",
    "9104": "Rabbit",
    "9105": " opportunity",
    "9106": " cubs",
    "9107": " Yummy",
    "9108": " Spidey",
    "9109": " Sasha",
    "9110": " Mixie",
    "9111": " Buster",
    "9112": " snorted",
    "9113": " rhino",
    "9114": " differences",
    "9115": " Gold",
    "9116": " quacking",
    "9117": " Tell",
    "9118": "ifully",
    "9119": "ended",
    "9120": "Fifi",
    "9121": " heaven",
    "9122": " Birds",
    "9123": " unlo",
    "9124": " levers",
    "9125": " inchworm",
    "9126": " inter",
    "9127": " approach",
    "9128": " Tyler",
    "9129": "ssess",
    "9130": " seagulls",
    "9131": " possess",
    "9132": " cooperate",
    "9133": " Rufus",
    "9134": " Felix",
    "9135": " Boom",
    "9136": "welcome",
    "9137": "sers",
    "9138": "ragon",
    "9139": "of",
    "9140": "?”.",
    "9141": "andra",
    "9142": " pose",
    "9143": " disappointment",
    "9144": " Smoke",
    "9145": "ocular",
    "9146": " speaks",
    "9147": " sneaks",
    "9148": "snap",
    "9149": " binocular",
    "9150": " artwork",
    "9151": " surfed",
    "9152": " scowl",
    "9153": " answering",
    "9154": " Snake",
    "9155": " shortcut",
    "9156": " Grand",
    "9157": " sipped",
    "9158": " robin",
    "9159": " dep",
    "9160": "Climb",
    "9161": " arrest",
    "9162": " Inky",
    "9163": "ssy",
    "9164": " unwrapped",
    "9165": " ribbit",
    "9166": " reun",
    "9167": " amused",
    "9168": " Amanda",
    "9169": "ugar",
    "9170": " repeats",
    "9171": " pepperoni",
    "9172": " applause",
    "9173": " keyhole",
    "9174": " checkout",
    "9175": " Mae",
    "9176": " Cars",
    "9177": "Lia",
    "9178": "Deal",
    "9179": " visitor",
    "9180": " striking",
    "9181": " puppets",
    "9182": " paddling",
    "9183": "Eat",
    "9184": " unz",
    "9185": " croaked",
    "9186": " attacked",
    "9187": " Circle",
    "9188": " Brian",
    "9189": "orsie",
    "9190": " spooky",
    "9191": " Otto",
    "9192": " Gus",
    "9193": "Each",
    "9194": " groaned",
    "9195": " beautifully",
    "9196": " Jean",
    "9197": "gar",
    "9198": "cidents",
    "9199": " swimsuits",
    "9200": " consider",
    "9201": " checking",
    "9202": "uses",
    "9203": " Yellow",
    "9204": "jest",
    "9205": " waters",
    "9206": " groom",
    "9207": " Squeak",
    "9208": " Slinky",
    "9209": "yle",
    "9210": " invent",
    "9211": "Luke",
    "9212": " nets",
    "9213": " exams",
    "9214": "otion",
    "9215": "ets",
    "9216": " drying",
    "9217": " Rebecca",
    "9218": "udy",
    "9219": "artin",
    "9220": "agine",
    "9221": " shrugs",
    "9222": " lump",
    "9223": " Auntie",
    "9224": "sie",
    "9225": "lest",
    "9226": " sobbing",
    "9227": " shyly",
    "9228": " shoots",
    "9229": " honks",
    "9230": " heels",
    "9231": " cheerfully",
    "9232": " Since",
    "9233": "ili",
    "9234": "hny",
    "9235": "esses",
    "9236": " shh",
    "9237": " chin",
    "9238": "anish",
    "9239": " whimpered",
    "9240": " healthier",
    "9241": " hangs",
    "9242": "icious",
    "9243": "Milo",
[...]
